#version: 0.2 - Trained by `huggingface/tokenizers`
Ġ )
Ġ (
Ġ ;
Ġ ,
Ġ i
Ġ -
S V
Ġ =
Ġ s
r e
Ġ- >
a n
Ġ c
b l
e r
an k
bl ank
e n
t a
i n
Ġ p
Ġi f
Ġ <
s e
Ġ }
Ġ {
t r
d e
o n
Ġ *
Ġ 0
m a
Ġ re
o r
Ġ .
Ġ b
Ġ &
g e
Ġ f
s t
a l
r t
Ġ "
t e
Ġ n
Ġi n
a r
a d
l e
ta rt
Ġ u
Ġ 1
t u
t i
m e
o d
Ġ +
u g
S tart
Ġ l
Ġ ]
i z
Ġ [
Ġ e
iz e
Ġ o
n d
B ug
c k
c t
t o
Ġ d
Ġ !
Ġ v
M od
E nd
Ġ r
ma ge
m p
f f
l o
Ġ :
Ġ= =
t h
r n
Ġ N
i d
Ġ g
tu rn
Ġre turn
Ġ t
re a
Ġs tr
Ġ m
c e
i t
I N
c o
l en
Ġin t
a se
Ġ a
u n
r o
a g
a me
U L
i g
u e
er r
\ \
s s
f o
Ġi mage
Mod Start
E R
Ġc ase
ti on
a ta
c h
Ġc o
e l
rea k
Ġ h
u t
Ġb reak
e t
p e
UL L
Ġ S
ĠN ULL
x t
Start Bug
End Bug
i le
in t
Ġc h
e d
in g
Ġs ize
l se
u ct
Ġe lse
Ġc on
u m
Ġ! =
Ġstr uct
Ġ de
s ize
Ġp s
e ad
Ġ |
en t
se t
l i
Ġ E
Ġg o
in fo
y pe
R E
u f
Ġgo to
d r
Ġ M
Ġ >
Ġ& &
p i
Ġ 2
Ġ k
O R
Ġs k
Ġl en
l ag
o f
Ġ+ +
en d
o de
3 2
s tr
p a
Ġ err
v al
Ġ y
Mod End
O N
> <
A L
> %
o ck
ig n
n s
d o
u r
S T
p t
Ġ x
Ġch ar
A T
Ġ P
Ġs ta
Ġ C
i s
Ġ R
de c
Ġ w
Ġre t
D E
IN T
Ġsize of
i x
u l
Ġ ma
r i
ge t
Ġ #
ar g
L E
p tion
Ġ I
Ġ T
g th
Ġn e
Ġ| |
I T
ead er
d ata
re e
c on
a s
u ff
Ġp a
un t
u p
e y
ign ed
i f
Ġ _
i l
lag s
Ġ A
s er
Ġ '
0 0
Ġn do
b j
ff set
Ġ j
ER R
S E
Ġcon st
a t
P R
ns igned
p tr
Ġu nsigned
Ġ q
ad dr
Ġd ata
c p
A C
an d
n o
n t
p r
r ame
a te
v e
in e
O P
Ġo ut
Ġf or
Ġb uf
Ġe x
Ġv al
Ġ+ =
Ġ B
Ġ 4
s k
L O
t ype
or t
6 4
f a
o l
: <
Ġ G
bl e
T R
l a
M E
b uf
i p
o p
Ġv o
Ġy y
Ġvo id
Ġ me
s g
uff er
A R
i ck
n ame
ma p
1 6
Ġ en
Ġs t
Ġ arg
co de
W E
lo c
S I
i r
ĠN D
C WE
Ġ F
s c
ag ick
s ta
i on
p er
y te
Ġ end
v er
m b
Ġ D
f ile
lo b
Ġre s
ix el
i st
Ġne w
n e
r a
I mage
PR INT
ti c
o c
e s
p ut
Ġ 8
Ġ 3
Ġco l
N O
Ġsk b
ul t
A D
ce ption
P E
pr int
Ġ L
Ġs e
s h
r c
p ar
Ġc t
tr y
e x
M A
L A
Ġt mp
r r
te xt
Ġerr or
B lob
o w
Ġo p
Ġ to
lo ck
U N
Ġlen gth
re ad
I n
Ġn um
Ġf lags
I D
E N
C K
de v
ERR OR
b it
Ġc m
Ġde v
bl ock
C H
a p
m m
Ġc p
ad d
f ree
C T
re f
de x
rea m
tu s
Ġ W
i c
n um
S S
Ġ tr
Ġval ue
Ġi p
ĠM agick
ro w
on g
C O
err or
u an
h t
f rame
, <
Ġ V
F F
tu m
E T
p ro
Ġ ti
ĠR ead
b o
Ġ< <
f or
Ġc pi
Ġ_ _
Ġo bj
Ġk ey
Ġme m
t er
Ġsta tic
print f
p o
T Y
k ey
V AL
re g
Ġd st
E rr
i o
co unt
q ue
Ġo ffset
ĠE X
a ge
Z E
c mp
li ce
Ġt ype
de f
yte s
Ġ U
F I
re ss
B U
Ġn ame
T I
val ue
s p
al se
Ġ ?
u b
Ġu int
uan tum
re d
Ġs h
Ġ> =
te d
Ġ" %
Ġa v
C E
ri te
co l
Ġs ock
E X
f lag
m ode
pi c
e ct
on e
M P
Ġm sg
q u
ĠRead Blob
Ġv p
Ġo pt
Ġ ta
o ffset
Ġct x
s lice
c ur
or d
un k
SI ZE
Ġp ro
ĠP y
len gth
Ġc ur
f s
Ġend if
a ck
h eader
Ġr c
Ġi d
f i
Err or
ile d
li st
Ġ" <
a c
er t
Ġ z
Ġp tr
TY PE
Ġs size
R A
Ġf ile
ma t
l d
Ġi s
v ent
a m
Ġw h
o u
a tion
P ixel
Ġl o
re nt
B IT
Ġp i
b uffer
f ig
id th
h dr
Ġ H
Ġcp u
f lags
Ġ al
ig ht
Ġin ode
A N
LE N
re s
o ut
e xt
m o
Ġco unt
fa ult
ch e
ct x
l ine
Ġ get
U E
A S
u ser
Ġre g
Ġs c
ti me
mp le
IN VAL
Ġl ine
d i
E x
Ġu n
Ġp r
i ce
Ġsta tus
Ġex ception
T ype
D R
F A
lo g
C ON
Ġwh ile
Ġb p
e m
Ġp o
Ġe xt
s b
Ġma x
p y
u th
li ent
> "
1 2
o t
Ġp ar
or y
Ġa ss
i de
Ġto k
cp y
D I
Ġf a
n el
Q uantum
t s
m i
sta te
it ch
t y
c tion
o k
T H
Ġs w
\ '
S L
a b
Ġ> >
str ing
bj ect
Ġcol or
OR D
Ġsta te
E D
b er
LO G
lo w
C h
IN G
ro m
I P
id x
Ġf ree
Ġco mp
Ġ< =
as h
Ġs b
Ġs rc
p l
\\ "
Ġ le
Ġr ow
Ġ K
cp u
U M
Ġ /
s ion
i m
a ble
Ġcm d
w n
A P
ck et
TR AC
Ġsw itch
a st
BIT S
en try
ĠA V
Ġf i
al loc
r y
w rite
Ġb uffer
Ġin fo
Ġass ert
Ġt ptr
s tart
Ġ| =
b e
1 1
m sg
e ight
a mple
Ġl ong
t tr
r b
A G
F alse
ro up
ĠMagick False
Ġa s
tr a
ĠG F
Ġm i
n c
al e
el d
i mage
I L
ma x
Ġ O
MA X
and le
> (
Ġb it
Ġ- =
u te
C o
ption s
o ur
u s
ss age
m ent
v el
S U
In fo
Ġre ad
Ġ" \\
ri v
an nel
m t
Ġde fault
H eader
Ġ OP
Ġf rame
no t
st ream
L S
M O
p p
len ame
b ug
m v
ĠG et
val id
Ġp ixel
Ġcon t
par se
te st
SE T
bit s
E CK
int er
Ġ 5
our ce
Ġne xt
Ġp c
bl k
S H
f t
m d
S tr
que st
s n
un c
Ġ addr
it y
Ġs et
U T
an ce
Ġg f
Ġpa th
l v
re v
f g
r u
ĠS et
Ġs p
Ġ Y
Ġin dex
d is
N E
Ġpa ge
pa ge
Ġ 6
I O
Ġ1 6
TRAC T
Ġs er
Ġm b
p ort
l loc
ĠS SL
m in
ĠT h
Ġ th
U R
la ss
um ns
Ġn et
re c
s ock
V P
N UM
R e
I C
d b
in k
Ġu ser
ĠTh row
r ag
I G
Ġcon text
l u
ĠEX TRACT
an s
me m
tu re
Ġm ode
S ize
Ex ception
ar d
s y
AC K
m g
Ġcol umns
Ġif def
Ġco mm
a ve
co dec
ME M
f d
0 2
Ġc lient
at tr
Ġh eader
in d
Ġpr int
in it
Ġa c
Ġlo g
p th
ĠI mage
BU G
co mp
Ġ' \\
O F
la y
M em
d ir
Ġb ytes
R O
T o
Ġcon fig
ĠE INVAL
Ġs tart
pa th
Ġv m
f rom
in dex
ch ar
ff ff
Ġi o
ss ion
e c
O L
Ġp u
Ġst ream
LO CK
ul l
ir st
LA G
ĠE NO
I F
CH ECK
r m
T O
v m
AL SE
F ile
ĠM S
Ġrow s
I d
ne w
D ata
b ytes
V E
an ge
pi x
Ġre q
Mem ory
in ue
EX T
L ist
I S
DE BUG
b s
a v
AT A
a f
M agick
Ġen v
o st
le an
lo ad
p h
un lock
t p
al l
Ġcont inue
Ġmem cpy
ĠY Y
AT E
00 0
Ġv er
no wn
Ġg en
Ġarg s
Ġf printf
UL T
Ġo ld
te mp
L I
) "
c a
E Y
Ġd i
qu i
_ _
pix el
Ġ ad
ĠT R
u nd
ce ss
T E
fi eld
con text
Ġin put
M S
Ġc l
D e
Ġo ff
H DR
k t
ta l
Ġb e
V ER
il ter
C on
Ġ 7
ta ble
de sc
LA B
Ġd o
po s
a re
Str ing
ti ve
i es
re en
lo se
Ġ RE
se q
Ġst d
l an
Ġre f
ist er
F NUM
d ate
2 64
F LAG
ar ch
FA ULT
I ON
Ġin et
add ress
ra y
ST R
Ġco py
Ġs un
ĠTR UE
11 9
H E
o pt
te m
de code
o ff
ĠThrow R
T P
w idth
eader Exception
ou ble
ĠF ALSE
Ġl ast
CO DE
F S
que ue
Ġh dr
ĠThrowR eaderException
E E
W ORD
x c
Ġb o
u mp
Ġnum ber
r get
pa ce
G ET
fa ce
Ġpo s
rea te
Ġint er
Ġfi lename
A X
Ġser ver
F O
Ġa ttr
n ode
U S
Ġ J
ute x
le vel
o y
str oy
Ġfa iled
Ġstd err
Ġ- -
Ġt p
Ġ1 2
ct or
P P
Ġw idth
Ġct xt
t mp
s ub
ord er
S K
Ġvp x
Ġs y
Ġstr len
ĠD e
= <
Ġk rb
Ġ X
D ATA
Ġen try
Ġr d
S h
Ġen c
re q
B LE
r d
g roup
u se
ĠV P
in c
L ong
C M
N T
o bject
2 0
tr ies
T CHECK
a y
Ġde f
PR O
Ġco de
c nt
P AR
i tion
or k
Ġf d
g ra
F RA
Ġres ult
Ġta g
che ck
p c
Ġd p
or ru
Ġs s
pe c
AT LAB
MO DE
orru pt
Ġp ort
m er
Ġma p
c s
Ġf p
Ġstr cmp
Ġ ERROR
Ġr s
Ġc fg
U n
Ġj s
i ve
Ġ rt
co mm
Ġl ist
M T
A ST
Ġh andle
Ġp rev
Ġret val
n et
ĠI P
Ġs ub
ch unk
O K
w ord
ma r
d a
C P
Ġb ase
l ink
Ġr o
ĠM ATLAB
Ġti le
v p
ct p
Ġh eight
Ġpa cket
Ġcur rent
Ġp b
CE SS
l l
rn o
EN T
ma sk
S P
ri pt
Ġm od
Ġin sn
par am
1 0
co py
t ing
Ġd ouble
Ġ mp
P ro
Ġu p
Ġx d
pl y
e vent
lean up
Ġ 32
o bj
G P
orrupt Image
Ġarg v
Ġ block
re n
Ġu sb
AG E
A M
i b
ĠC orruptImage
Ġmem set
d p
Ġti me
t l
ĠCorruptImage Error
Ġ Z
Ġav ctx
b ase
f b
Ġi h
Ġde pth
o b
Ġs ctp
X X
c md
Ġk vm
ĠI S
u le
dev ice
t ptr
Ġb mp
a u
Ġcolor s
Ġde c
OR T
Ġyy ch
G E
Ġj as
ress ion
i ff
S C
E xt
O bject
Ġpar am
gra m
L IN
ar ray
col or
= %
e ck
ĠSet Pixel
Ġch unk
K EY
le ft
Ġde st
en c
Ġp riv
pa rt
OP T
FRA ME
de l
a x
i th
li c
Ġyy v
Ġme ssage
Ġs i
U P
L en
i e
er s
RE AD
Ġs n
con fig
is h
h ash
P F
er rno
S Y
ti f
IT E
u id
Ġde sc
e p
I B
o g
v ar
Ġre quest
F a
ĠC ON
Ġco re
Ġv ar
C ol
G et
Ġ Q
Ġ bl
ma in
pa ck
d c
p riv
Ġm in
Sh ort
n ull
k e
IN FO
U INT
pa ss
mb s
ĠM AX
ref ix
u st
w d
> =<
ON E
AT TR
B G
INVAL ID
Ġse ssion
a ture
N ame
Ġl oc
FI G
Ġp lan
ct l
ue ue
at or
Ġo ptions
B uffer
Ġa uth
m s
Ġyyv sp
il d
en v
in ed
Ġma sk
L V
ĠU WORD
Ġbit s
C UR
g en
Ġp e
Ġm nt
RE G
U RE
Ġ1 0
Fa iled
Ġp h
to m
for mat
S et
or ted
r p
Ġ ~
Ġf alse
str ide
Ġbe st
v c
ne xt
annel s
s um
Ġn o
Ġv cpu
ĠENO MEM
ca che
Ġex it
A ME
p end
i al
od er
Ġs ample
Ġq uantum
Ġcolor map
de bug
Co mp
x p
pt er
Ġth is
Ġv ma
ĠEX T
D O
in ode
Ġf s
Ġf rag
tu p
h er
Ġe vent
ou nd
arg s
E vent
d f
P I
0 4
o ptions
LS B
y load
Ġid x
Ġr a
Ġde bug
Ġm o
Ġ Quantum
sk b
p oc
it s
FI LE
> -
re ct
k nown
Ġ test
ST AT
Ġcomm and
Ġsb i
Ġ LOG
Ġ2 5
Ġt v
op en
fa iled
Pixel s
FA IL
i an
0 1
A BLE
Ġreg ister
T TP
um ent
s pace
Ġsk ip
mo unt
e ff
Ġs db
Ġpixel s
lo t
Ġplan e
Ġreg s
B LOCK
t ree
B yte
p red
To Quantum
ĠMS G
tr ol
it er
up p
en tic
ry p
if t
e k
Q L
Ġs z
C CESS
Ġt x
Ġm s
ĠReadBlob LSB
qui re
M UL
ĠB PF
Ġtr ue
po int
Ch ar
L D
a il
in valid
RE F
to k
le ase
t ch
Ġ temp
s u
Ġf l
Ġ INT
ĠE FAULT
c ale
W R
V al
p s
Ġ or
SI ON
> \\"
Ġ %
od ing
ĠOP J
D F
se d
Ġv iff
Ġjs on
Ġg roup
Ġt c
Ġfa il
. "
m it
Ġn p
Ġk free
Ġd is
Ġi r
od y
str m
f unc
ti le
>( %
Ġpro to
A d
S ta
Ġs ign
b ack
ĠS cale
IN ET
bit strm
s ample
sc an
A uth
v ice
ip her
Ġcl one
ver sion
Col or
l y
a bl
t x
Ġi mg
1 8
ĠA c
Ġb in
ĠT I
ĠDe stroy
f irst
ate d
f rag
to p
c c
f ilter
or mat
upp orted
con ne
Ġsp in
ĠW ORD
value s
sk ip
Ġta rget
ok up
Ġ arch
ig h
xc f
ĠAc quire
c b
AL L
CO MP
ct b
im it
pa cket
R ead
a uth
re ge
Ġc leanup
Ġo xcf
Ġip v
) <
re sh
TI ME
Ġch eck
str uct
c lose
Ġl ock
MA SK
b uff
Ġp id
: %
i v
f e
re quest
F MT
Ġ" "
NE L
TI ON
M AT
S ER
re t
Ġse g
ra w
Ġn ode
Ġto tal
Ġstr n
ĠS O
ĠC H
ma lloc
SU CCESS
up date
tr ue
o m
Ġtr ans
Ġad v
Ġs in
m l
er o
S R
n ing
Ġre d
Ġin it
Ġg reen
Ġm y
ER N
ĠB GP
ĠSet Image
Ġro ot
n g
Ġio v
ry pt
r un
Ġp ix
ĠS A
da pter
th read
Len gth
rege xp
P A
P a
ĠE N
ĠA dapter
LIN E
F OR
abl ed
Ġs f
le ment
I CE
AS M
ĠTI FF
M IN
h andle
ĠGF P
ph a
O B
Ġbl ue
] "
C AST
ĠA FNUM
Ġadv ance
. \\
g er
EN D
ĠS tr
lo at
CON T
h eight
Ġp er
Ġtr unc
8 6
h ead
Ġd one
Ġpa rent
HE AD
ting s
f rm
M D
y nc
el y
tr ans
g o
s end
c fg
n al
se c
Ġo per
f low
Ġinter face
Auth entic
S OR
k ely
st ance
bo x
CUR SOR
del ta
le ar
ĠM O
Ġh t
la b
ĠYY CURSOR
el l
par ser
K ER
Ġb yte
sta tus
Ġm utex
SS L
Ġh ead
I R
ĠCON FIG
r g
Ġre c
00 00
Ġprint f
0 8
B O
p id
Ġi m
en sion
ar y
ĠI n
Ġa u
p u
se g
In dex
ĠS T
Ġoper and
Ġs ource
r ate
Ġ 9
ĠReadBlob Byte
O UT
Ġdef ine
Ġ" /
Ġf low
w ith
D C
Ġfor mat
le g
LO C
per ty
\\" <
Ġex tra
Ext ent
ĠSA FNUM
T LV
CO M
Ġtc g
w ork
x ff
Ġpe er
Y TE
m od
Ġm v
Ġr q
Ġh ash
Ġ2 4
BU F
2 4
th od
Ġm d
MA P
b in
M IT
f m
ĠI V
ript or
ryp to
V M
Ġb h
fi lename
> \'
Ġh ex
DE V
ĠVP X
a it
Ġl ay
Ġpar se
c reate
Ġ errno
NO T
Ġsn printf
M e
rec v
R D
p ri
ol u
num ber
Ġsh ort
Ġf irst
page s
1 5
c lass
Ġt cp
Ġtok en
ht tp
sock et
ĠR el
r ing
t lv
w o
AR N
in qu
Ġl d
Ġr un
Ġle vel
ta g
ti al
Ġm m
P RE
Ġs g
e pi
x ffff
Y PE
Ġs a
ĠRel inqu
ĠRelinqu ish
t len
Ġe p
ĠE OF
Ġdev ice
or age
DE C
Ġp kt
Ġra w
Ġs q
tok en
l s
d up
O ffset
ent s
Ġd d
H TTP
Ġ" ,<
o re
on se
A ttr
li te
ab c
Ġre ct
Ġloc al
s rc
Ġp S
Ġyy val
block s
ĠPy Id
me ssage
ro ma
Authentic Pixels
Ġw rite
P ack
Ġc ap
W A
Ġco dec
Ġch annel
AN D
Ġn b
Q U
Ġr ate
ol d
12 5
Ġb s
ĠV FF
s a
ĠS QL
li kely
if y
it map
Ġbo ol
Ġpa rt
pro c
de d
Ġout put
i tem
dis p
d l
l er
Ġx fs
Ġt len
Ġun likely
u v
Char ToQuantum
ĠScale CharToQuantum
N AME
S O
Ġver sion
pec ted
R es
Ġ add
Ġ address
Ġr fb
ĠW ASM
Ġc lass
Ġs end
Ġu se
ĠAV ERROR
Ġmb mi
ĠDestroy Image
A U
ĠN G
oc ale
I mp
Ġ& =
Ġpa yload
d st
Ġ IN
A lloc
a ss
VP N
t ream
Ġ tu
Ġn r
row s
Con text
ĠD BG
unk nown
Ġs ig
re st
Ġt lv
LEN G
n def
th e
d io
Ġs nd
Ġp d
Ġu t
ss ing
ON G
Ch annels
tif y
co re
lob al
T ag
Ġp v
Ġstr ing
Ġma tch
O T
ide o
Magick Memory
Ġor ig
LENG TH
Ġex p
C R
Ġi mp
gram mar
op s
mat ch
W N
p rev
ut t
pi ed
ĠS C
pro to
I nt
Ġi ter
Ġu s
me d
E V
Ġma g
I LE
Ġsock et
en tries
Ġcon n
AR T
> [
Ġr b
Ġa pp
in do
st er
KER NEL
P ar
i te
Ġas oc
P ER
S A
ac tive
Ġc k
Ġc an
Ġps f
z ero
bo und
tom ic
P O
b r
h as
w r
Ġi cmp
mo ve
Ad d
O M
o me
il l
B YTE
C S
r l
ro ot
ĠW ave
Ġf ilter
p refix
Ġc a
Ġa p
CT ION
SU PP
Ġal loc
2 5
Ġr v
ul d
MUL TI
C AP
L imit
ĠC DF
pixel s
indo w
ren a
c an
Ġsq lite
Ġset tings
o ption
u int
co eff
c all
s z
res ult
Ġstrn cmp
re p
Ġr p
Ġle ft
Ġsock addr
d ump
C B
h ost
Ġo ption
ĠP R
se ssion
Ġco pied
te ger
ir q
Pack et
Ġlay er
N ONE
g ress
Ġ" -
Val ue
f mt
Ġif rame
ur l
qui red
wo pass
P y
f ind
P T
arg ument
. .
R B
u c
ta rget
CH AN
mp t
Ġc s
Ġp g
sp s
Ġpo ol
P M
Ġd entry
Ġss l
h el
Ġg r
l f
s ign
I M
nt p
Ġf f
RE Q
Ġa rena
pro cess
P G
g id
sta ts
E n
m ul
ĠB itmap
color map
7 6
Ġarg c
Image Header
mem ory
EE K
a in
Ġe s
Ġd ir
Ġstr ide
at ch
B o
FAIL URE
ro per
Ġen tries
E C
c ase
Ġu id
Ġch m
AT ION
loc al
Imp roper
Improper ImageHeader
Ġsy s
5 0
I V
ĠR es
Ġstr cpy
sta ck
sy nc
O p
Ġt wopass
HEAD ER
ĠWave Header
s i
re lease
st ep
IN C
Ġh ost
pp s
ĠReadBlobLSB Short
I VE
L Y
T ER
Ġc b
sta mp
Pa th
en abled
Ġta sk
ow n
qu al
XX X
OB J
ch r
Ġma lloc
c at
Ġav io
M B
p kt
ĠA R
Ġ ERR
ti mer
Ġt ty
Ġa st
ro p
Ġq ueue
main ing
ĠSO CK
O f
o s
en o
de pth
Ġc rypto
3 6
tr fs
ser v
LA SS
c ipher
Ġi tem
oc b
AD DR
E CT
P ACK
bo se
Ġopt len
Ġn s
ĠM ax
con trol
Ġres p
B AD
Ġop code
lu sh
> '
Ġp k
Ġ" [
e a
> \\
Ġb trfs
Ġarch ive
ser ver
Ġs d
Ġc reate
cur rent
WR ITE
ĠRelinquish MagickMemory
v as
Ġde code
ĠSetImage Pro
A SE
l ong
u a
con v
on ly
li mit
Ġph p
Ġc red
W ARN
do wn
ĠC oder
ĠGet Pixel
2 8
Ġf c
Ġa tomic
ve c
) \\
w ar
Ġme ta
ex if
STR ING
S B
a tum
en e
pe d
OP Y
ti es
Mod ule
la ce
pl an
re ce
Ġif a
Ġre al
ĠB I
M L
Ġ1 5
ĠEX IT
e g
un ction
Ġop s
N D
ch ange
ĠE x
Ġcomm on
ĠS ync
ter m
Py Object
ma l
ĠE VP
Ġti mer
b y
Ġch ild
pr inc
Ġq u
rc v
mg r
c lient
ĠPy Err
xffff ffff
Ġin p
Ġop j
Attr Id
Ġnew sk
UN T
N um
Ġb size
Ġn d
to o
if i
rr p
ru le
comm and
T AG
m utex
Ġl ink
Ġr x
Ex c
Ġ ge
ĠC O
CODE C
C lass
in put
sh ort
C C
Ġs sh
re ply
s pec
ource Limit
Ġ' <
reg ister
Ġvm cs
PRO TO
AU TH
ĠB U
ĠB LOCK
ta in
Ġo t
RE S
sh ift
ĠPy Exc
O FF
b yte
tr l
ĠNG HTTP
a ff
th er
IL D
Ġir is
ĠRes ourceLimit
ĠResourceLimit Error
Ġd b
ce pt
M ode
BU FF
S e
tr ix
SI G
UN D
param s
Ġpa ss
Ġse q
ĠU INT
mo v
Ġf rom
Ġr r
DE FAULT
IG N
C L
c ard
Comp are
v flag
ĠK ERN
>\' %
Alloc ation
v ideo
Ġs u
Ġre ply
Ġma c
ĠT EE
Ġcomp s
CM D
Ġrs vp
Ġb ad
Ġf il
ame ter
se tup
Ġm utt
Ġsc ene
Ġoperand s
MULTI CAST
d ig
Ġl ua
op y
CT L
de fault
sta t
SU B
Memory Allocation
olu tion
MemoryAllocation Failed
Ġal g
di ff
LI ST
ip al
Ġtv b
FI X
RA Y
ĠK EY
in tra
Ġu v
Ġper f
re turn
al et
LO W
Ġal pha
8 0
G B
Ġf lag
mp ty
Ġsc an
I ZE
i rt
FOR MAT
N ext
S ON
Ġch an
s pi
RE AM
lic y
Me ssage
P U
P er
f p
ct xt
Ġcon f
lv l
en ti
OP TION
Ġt er
ĠS ta
fa st
SI S
1 9
ta il
co st
ok ie
F ormat
a k
* *
E nc
Ġr ar
ĠP AGE
Ġop en
lab el
Ġp ut
tr ack
TY P
Ġac l
c ap
m u
s q
Ġf loat
Ġo buf
Ġk dc
MS G
7 8
c ted
Ġ 64
Ġc ard
al g
B uff
b h
Ġ an
res ent
ĠGet Magick
to tal
con f
Ġid ent
/ '
Ġp op
DE F
Ġ' /'
fa il
out put
leg al
BUFF ER
in stance
ĠI o
ĠL og
i tial
IT Y
CONT EXT
3 4
ren ce
A l
RA W
MS B
U SE
x f
Ġn g
L og
ch ed
alet te
Ġ ar
Ġp refix
T r
Ġcan vas
Ġc all
Ġ2 0
ST ATE
Ġpi pe
A VP
R T
Ġn la
Ġh mi
Ġpro file
PI X
Sta tus
Ġf h
DI R
FLAG S
SV P
ser ial
ĠBitmap Header
8 8
Ġif ndef
Ġg b
ta rg
Ġch roma
CT P
uan t
ĠQ ueue
q p
st em
: "
S N
Ġe v
\' "
Ġmo unt
AC E
Ġse c
Ġu max
ome try
W rite
u re
ur ation
ĠL ocale
ĠGetMagick Module
F lags
Ġt s
reg s
A IL
c l
Ġip addr
mar k
s ave
io us
Ġdef ined
ĠP G
SL ICE
Ġb ody
Ġf mt
Ġcomp ression
use d
Ġmod rm
ĠSta tus
h and
Ġd at
CON ST
ĠR SVP
Ġb uff
RE P
Un known
Ġ25 6
2 00
lo okup
re set
ME NT
Ġi t
ma c
ow er
Ġlo ad
Ġtr an
ĠReadBlob XXX
inter face
sy s
uc ture
sp ort
R P
o ad
fo und
ex it
Ġver bose
I ST
t ent
Ġac tive
hel per
Ġter m
4 4
K ey
p resent
ma ry
\\ \\
ST REAM
Ġex ec
Ġta ble
Ġsign ature
sq l
C an
S OF
Ġ blk
ĠR ec
ne x
ĠDestroyImage List
e w
g f
Ġt sk
ĠL IB
ib ute
C lient
Ġs printf
en code
to h
c red
Ġp w
sc ript
ap pend
VER SION
Ġup date
LD P
SOF T
r ange
Ġg lobal
OR Y
CH AR
N ULL
Ġtr ack
B E
al t
inter val
C LASS
u al
w ait
ĠP TR
Ġfi eld
STAT S
W IT
ĠF ILE
Ġz end
Magick Event
conne ct
Int er
ĠLog MagickEvent
de blk
pa rent
for m
Ġobj ect
WARN ING
D P
o ok
Ġc lose
ta tion
RE E
con d
iv ed
de stroy
Ġb i
Ġu min
End ian
ĠS EEK
re quired
Ġp ptr
ip s
e e
AD D
ac tion
T able
er y
8 02
UE ST
Ġh w
ON LY
col s
ĠS CTP
Ġne ed
pp ing
9 9
h igh
le te
Ġt l
Ġip c
of st
SH A
se le
Ġn l
IN IT
STAT US
Ġrq st
C LE
P TR
re sp
0 3
f c
i ct
Ġsta ts
il y
SE C
f er
ĠM Y
TR Y
Ġgr ub
id c
rr or
di rect
7 7
f l
s upported
ge st
af e
i me
nd er
AL LOC
Ġv rrp
Ġa i
TRAC E
ĠStr ing
Ġd c
ĠS ize
ĠI SIS
Image In
mi ssing
ĠK RB
ImageIn List
! "
2 2
g in
Ġs min
in al
Ġd y
o ver
Ġht tp
ĠReadBlob MSB
Type Error
Ġbp p
av pack
6 0
b and
Ġr m
UN K
PAR AM
Set String
>- <
SUPP ORT
Ġ text
Ġp in
no tify
ĠW avpack
Un able
C I
P K
Ġs vc
Ġin d
AT H
Ġi map
Ġe lement
ĠR T
ab el
H O
Ġ1 00
ST ART
Ġarg rest
db g
WA IT
L ONG
b ody
Ġs lice
In valid
ĠIP V
qual ity
Ġp ri
end ing
con n
mo te
Re g
mg Buff
ĠBI mgBuff
B IN
d one
pi pe
ĠMagick Offset
Ġbo x
INVALID DATA
ĠMagickOffset Type
Ġs r
Ġs um
re port
PE G
b c
o lean
Ġ UN
it t
ER T
Ġh as
AR D
io ctl
DI S
A B
d entry
Ġ DEBUG
Ġd s
Ġv a
co m
DE SC
a ke
p d
ĠC MD
po ol
Ch unk
ĠCH ECK
h e
Ġw pc
sc ale
Ġsc ale
ĠK VM
LI MIT
S ign
Ġu df
Ġk i
Sta te
A VE
c lear
Ġ one
Ġp re
Ġd w
Ġerr msg
p ing
Ġx ml
code d
ver t
\' <
D BG
P tr
in ish
Ġre p
id i
s up
Ġ" (
S ample
c i
re al
Ġms r
F UN
io v
Ġsh ift
ĠImage Info
Color map
f ix
h ex
i ss
} "
VAL UE
Ġrc u
T ext
Ġb and
Ġrd s
princ ipal
B IS
frame s
nex pected
E L
CH IVE
Ġe a
Ġm c
Ġy r
pt s
Ġbuf len
ĠW AVP
ĠWAVP ACK
n on
u sb
Ġb ack
Ġc mpt
Ġcon ne
ĠM IN
OR BIS
au to
Ġseg ment
ra p
Ġdesc riptor
ĠGetPixel Channels
ameter s
G RO
s w
Ġb c
li p
Ġbp f
decode d
ĠPR I
N ew
T LS
RE C
ĠC L
ĠJ AS
lic it
pend ing
ĠIV D
OFF SET
U nexpected
n p
con s
fa ctor
Ġcap len
CLE AR
Ġin file
me thod
Ġprev ious
B ytes
N S
d it
Ġs el
Ġr sp
th resh
V AR
m c
x a
ĠEN C
M ax
se m
ol l
CT OR
Ġp ending
Ġto p
Ġlo okup
; <
c leanup
Ġu i
Ġ1 4
Ġd ump
as k
Ġmy sql
ĠReadBlobXXX Long
5 1
Ġc nt
dis se
M I
e rence
Ġp p
ie w
> {
Ġs lot
Ġd ist
De vice
- -
: '
f alse
Ġc e
Ġ' :'
ac l
UR N
Ġtu n
SIG N
. <
N C
n r
te p
Ġr ange
buf s
ĠV M
bo t
pu sh
I E
Ġt ree
ĠT X
key ring
lo ts
ĠS IG
CO L
pro b
MEM ORY
L e
FI L
Quantum Memory
Co unt
Ġh id
RE D
Ġmem cmp
c lu
re rror
Ġcon trol
mb aff
LA Y
ĠRE AD
US ER
part ition
Ġu rl
AR G
CT X
i as
se ek
AR Y
ĠW PG
av ail
me ta
ex ec
IP V
Ġau x
Ġop targ
ĠSync AuthenticPixels
po inter
Ġpb i
1 4
J SON
f r
n or
x FF
to i
Ġa f
pa yload
AC CE
ell Type
Ġld blk
N o
l c
Ġo s
ĠPy Object
IO C
Ġpriv ate
proto col
ut down
Ġse tup
ex tra
CT YPE
sa mp
>% "
LO AD
ĠD W
ĠL oad
Ġkey word
12 8
CHAN GE
tain er
a ct
t m
Ġc c
B l
Ġn toh
CON FIG
w h
de st
iz er
ĠS E
ex p
F E
M ask
T ra
ĠPy List
Ġcomp no
Par se
M ON
g ing
Ġint f
DE P
la st
Ġun ix
pri mary
t d
is ion
Ġpro c
B in
in itial
Ġt d
Ġstr chr
pa ble
AC H
02 4
Ġextra ct
F L
V er
Ġex pr
bo ol
b ad
m ust
en er
Ġp md
Ġb us
Ġsh ow
Sign ature
I DE
ta b
ĠN O
ĠL LDP
lay er
Ġ12 8
b d
q uant
Ġ ON
Ġb r
ĠR e
ĠA F
ĠMagick Path
Ġz ip
LI B
PA SS
ĠMagickPath Extent
N ET
S tream
Ġn fs
le d
Ġg s
Ġend ian
ĠStr ucture
en able
st orage
al c
Ġde l
ĠF ormat
UN I
PAR SE
case cmp
ize d
bo ve
Ġcont ent
g p
er nel
Ġg d
Ġval id
P ORT
l ing
Ġc in
Ġf close
ĠP ixel
CO UNT
F ALSE
i que
s lot
End Of
TI F
Ġi v
Ġc lear
B ACK
Ġre lease
st and
Ġass oc
alloc ate
Re al
50 9
F ree
R GB
S W
le af
Ġh len
EN SSL
Ġpro p
i mp
tr ic
Ġd atum
ĠSetImagePro gress
Num ber
ĠLoad Image
en ce
ĠC on
Ġresp onse
5 5
A K
n one
Ġf name
IG H
EV ENT
N ot
R ed
en es
un serial
AL IGN
ST A
ception Info
Ġmag ick
ĠEx ceptionInfo
P ATH
Ġc d
Ġc at
ĠEOF Blob
Tr ue
I s
R C
U BLE
e mpty
st ore
Ġw indow
Ġframe s
lay ers
serv ed
plan es
bot tom
Ġi c
RE T
TH ER
sample s
Enc oding
i eld
s ing
th dr
Ġt m
Ġma pping
ĠT CP
ĠAcquire QuantumMemory
Unexpected EndOf
UnexpectedEndOf File
S D
Ġs addr
Ġre maining
Ġg ss
as m
E LD
Ġerr code
FI ELD
Ġun known
A IN
an y
Ġt g
Ġsc r
desc riptor
F rom
O RE
Ġ" .
ĠM AC
str dup
bo ok
Ġname len
Ġprint k
comm ent
ĠIn teger
ĠCoder Event
U V
w are
an t
Ġn i
Ġx dr
ex pr
ter n
fi er
ĠSSL err
Ġpu sh
Ġproto col
th is
ro und
RE SS
ac cess
Ġconne ction
l x
Ġs as
sc enes
Ġti m
Ġal t
su re
Ġp ad
ĠN E
ut f
ĠF F
ĠReadBlobLSB Long
Ġdw g
r k
Ġs pl
Ġf ound
Ġsta t
NO DE
ic ation
ĠV ORBIS
TE ST
Ġsy n
GRO UP
Bl ue
stand ard
p en
| <
Ġs max
di v
Ġnet dev
Ġcomm ent
av g
conne ction
Ġrqst p
ĠON IG
v s
se s
se ction
ct ype
ĠI rp
NE W
Ġ25 5
f lush
if s
file s
D B
G reen
v err
Ġp te
Ġm tu
data gram
Ġyy ss
ĠAR CHIVE
G O
] <
hand ler
u x
in eno
Ġr val
ĠC ellType
mul ti
resp onse
F lag
c r
se arch
Ġe e
def ined
ĠOP ENSSL
ĠCH ILD
sign al
Ġc af
ĠB CM
time out
al low
Ġnew np
Ġpart ition
bound s
Ġf e
Ġa t
Ġpa ir
AR RAY
LA N
Ġheader s
s ource
Ġc i
ma tion
il er
ĠBU G
/ %
1 3
en tation
Ġe t
co mple
Ġpo st
ĠX FS
Ġw ait
ĠA SS
for k
po licy
SY S
O S
R ange
s or
Ġc df
Ġf n
Ġw ork
di tion
b u
n a
Ġs tep
ad er
run ning
P UT
tu res
un it
ĠG ET
>[ %
4 76
C MP
l legal
z ip
Ġj pc
Ġas dl
sy stem
irt ual
WIT H
T ML
Ġsp s
Ġ1 7
Ġl i
INT ER
Ġz val
ĠCON ST
or iz
mb d
dig its
ĠPG M
Ġki ocb
Ġp l
Ġ1 3
ĠS N
ref erence
ĠMagick Real
ĠH AVE
>\\ \
ĠMagickReal Type
ĠS tream
con st
Ġis instance
j ust
re con
Ġc JSON
ta x
Ġp rec
rn al
Ġa ction
AC HE
ou rnal
Ġpage s
Ġvm x
u ge
Ġi oc
Ġn on
Ġ1 024
Ġl abel
Ġm us
AD M
ext ent
Ġmag ic
l t
r int
to f
Ġd addr
Ġdata len
Ġex if
IF Y
DEC REF
call back
1 7
P C
Ġf lo
Ġd ff
Ġg id
Ġme thod
ic al
Ġcpi o
an ch
Ġb gp
ue st
ser ve
TR UE
u do
rt p
Ġen code
EX EC
ĠH TTP
unserial izer
b b
l ash
pro bs
STA MP
R M
Ġc ifs
le m
ĠN ET
Ġk f
Ġsta ck
ri ption
TR AN
Ġtime out
Ġparam s
LIN K
can not
se udo
do ut
Ch annel
scan f
ĠAcquire Image
Ġimap d
2 6
6 00
I tem
T X
T OR
Ġ te
Ġre nder
or ity
> /
m y
n er
ata l
ĠP H
Ġst orage
ĠK ADM
Ġhex dump
DEV ICE
rece ived
C IP
F D
O D
f n
re move
Ġc sum
de lay
Ġl ow
Ġm ul
ĠE IO
is om
con dition
ap p
dis k
Ġmessage Data
itt en
9 000
F rame
T ab
Ġu c
Ġd h
fa m
ĠF LAG
BU S
cur ity
MO D
Ġpc ap
dis able
sy n
ERN AL
Ġexp ression
li ties
Ġpa ck
ĠA ttr
ĠDW G
Ġdel ta
H ER
L C
O ut
st ed
IT ION
ĠB IT
Ġis is
IC AST
pos ition
Ġsu bo
M AC
p re
Ġp rc
ti d
UN ICAST
Ġspl it
C ACHE
H AND
tr an
ch annel
fam ily
P OL
o uld
Ġ AL
mo tion
iter al
Ġge ometry
4 0
E MP
c rypt
re ction
Ġp t
Ġp len
ON T
ĠT YPE
as l
ma trix
ĠU SE
im um
rec ord
a che
Ġl imit
et ch
Ġlo op
Ch eck
Ġhdr len
PER M
ĠMAC RO
T ime
Ġng http
Ġp ic
on s
or ig
Ġ4 0
Ġen um
ĠMagick True
seg ment
FUN CTION
5 6
B I
C ode
T L
T e
Ġs ave
Ġa toi
ĠU str
En try
Ġc blk
on t
ST ORE
con su
DO UBLE
88 51
A V
O C
b i
x y
ĠC U
Ġoffset s
OL D
ĠST AT
ug in
Ġl xc
ss ize
>% .
ĠP RE
ĠU SB
ab s
allow ed
C D
M AR
ĠN um
ch ild
Ġma t
Ġtr k
pro file
for mation
Ġcomp iler
gen er
ound s
R X
c ert
i a
Ġu dp
Ġma rk
PR IV
Ġser ial
Ġmode l
IF T
Ad dr
ifi ed
ĠMACRO BLOCK
B ASE
d d
ĠT C
Ġse ction
Ġpc i
sele ct
9 6
A UT
L IT
Con tent
ABLE D
a tive
u ite
Ġ* =
ver ify
opt s
ĠPRI u
S QL
a ce
ta ch
ĠS e
Ġpro g
Ġrs rc
) ,<
9 4
W M
b us
j ob
w ard
Ġb count
la ve
ĠSetPixel Index
Comp ression
PACK ET
c d
Ġs se
Ġc fm
Ġp dev
pe g
Ġst rerror
be st
enti fier
Ġsel f
disse ct
F ield
p k
p lay
tu al
ent er
SS AGE
key s
EX CHANGE
Ġth read
>- -
OBJ ECT
rece ive
ĠCO MP
ĠIo Buffer
E K
I AL
Ġif p
Ġa b
Ġx mi
NO WN
ĠH TML
av ed
802 11
E M
U p
s r
v r
Ġm x
ST ACK
Ġarg p
Ġmin or
SUPPORT ED
a rea
m nt
Ġ1 8
ĠC OPY
ĠC opy
Ġnet dissect
P AGE
W IN
Y UV
d rop
Ġs ort
Ġj p
Ġntoh s
DEP TH
ĠLoadImage Tag
an al
Ġn h
Ġd cfg
ĠS Y
ĠB T
TR UN
mi ss
Ġdi e
au dio
ust om
Ġorig in
Ġck Size
AUT O
3 99
d be
k rb
map ping
Ġsh dr
token er
z alloc
Ġy v
ĠO E
Co re
ĠMS PACK
S PE
l p
an g
Ġco okie
LO B
Ġen sure
Ġst dout
3 5
M LS
t kt
Ġi llegal
Ġp red
Ġv d
ĠI CMP
put c
COMP LE
w indow
Ġs iz
Ġc g
Ġp df
Ġre con
ur b
ĠT SR
block size
Ġsc reen
Ġdp x
Ġbyte stream
Add ress
ea ch
real m
ĠTSR MLS
Ġ on
Ġc r
AL G
tic al
Ġsend er
Al pha
Bin ary
t fr
Ġe dit
Ġo ther
key word
Ġun lock
>\\" %
olu me
Ġc ptr
Ġl c
IN DE
SH IFT
scan ner
SER VER
C ALL
m ult
se ctor
Ġ1 1
id s
Ġstr l
Ġgo t
ĠM B
ex ception
bit map
Ġti f
AS H
mt p
36 2
Ġev t
ACCE S
CIP HER
B it
S Z
f ull
p ad
Ġyy scanner
Ġle af
ĠCoder Error
UNK NOWN
N G
re lse
or tion
Ġd m
pe ed
ĠS TR
INT ERNAL
Ġma ke
NO RE
Ġcur buf
am ma
Ġext ent
F C
Ġb io
TO K
LI ENT
De f
ĠIP PROTO
ĠIN IT
D ATE
V irtual
Ġ order
header s
CON TR
Ġsample s
Ġir q
ĠQueue AuthenticPixels
Tra it
F irst
e lement
r x
Ġi info
Ġr desc
do m
ĠB IO
ME SSAGE
ref s
L o
N Compare
T K
g r
s on
rt y
Ġg p
Ġa cp
ri ver
Ġq mode
Ġse ss
IO CTL
Op en
ĠLocale NCompare
E S
P IC
S er
in o
Ġif r
Ġa bs
pa ir
ser vice
name len
ĠReadBlob Long
A c
s se
x h
ag er
of s
Pixel Trait
ĠH eader
Ġsub size
au x
ĠSQL ITE
war n
( %
: \\
F or
w b
ss l
pa re
Ġti ff
count s
CON N
F LO
g t
u i
z u
st mt
Ġg t
Ġw r
Ġyy n
bo ost
Ġsh m
test s
Ġser vice
ĠThrow File
Ġac cess
MAT CH
ĠThrowFile Exception
. '
C LO
x attr
an dom
Ġf ix
ĠE ACCES
AT OM
Ġ' .'
Ġpr inc
2 1
B lock
c trl
n b
Ġ try
ĠEX IF
Con fig
priv ate
Bo x
ĠLocale Compare
TRUN C
CONTR OL
F REE
M ER
R ow
Y PT
w ap
lo op
ch roma
REQ UEST
b ind
l ate
Ġp alette
AC CESS
Ġfor ce
ip pi
Ġenc oding
Ġind ent
ĠPixel Packet
P H
Ġs lots
ch an
Ġk malloc
ĠT K
con t
MA G
COM MON
ass oc
IST ER
ĠReadBlobMSB Long
B its
l iteral
ta sk
Ġr lvl
ĠE PERM
par m
Ġbp s
plan e
78 7
TOK EN
L ocale
S igned
d n
s m
Ġf ind
Ġr w
ĠN OT
pa c
AN Y
Ġpar ameters
ĠO K
ĠSetPixel Red
ĠSetPixel Blue
ĠSetPixel Green
ĠQ MODE
change d
Ġs es
al k
ĠS H
ĠE MIT
no te
Ġen able
sta ll
LA NE
Ġbit map
DO WN
iss ippi
miss issippi
Ġstr val
Ġa bove
li b
ĠI O
Ġres ource
Ġopt s
Ġph y
Ġsign al
fe ature
ĠIo Status
Ġdc cp
C RE
U MP
e vc
t tern
Ġs scanf
pa k
ĠC R
ĠT ell
ĠMS R
Pro perty
Ġblock size
ĠMax Text
19 0
over flow
nor mal
ĠPRE FIX
ĠTell Blob
ĠMaxText Extent
F loat
w rap
Ġ er
Ġin filename
ĠC lose
at pak
CON NE
Ext ension
Ġflow i
wr itten
ĠFormat Locale
F lash
R ight
i se
Ġc lu
bl ob
Ġl ib
Ġd raw
Ġt xt
IN E
line s
E AT
E MUL
f inish
o verr
Ġstr casecmp
name space
DI V
Can not
j ournal
Ġf unc
Ġres olution
bo olean
Ġkey ring
us age
Ġattr s
comple te
TRAN S
, %
= "
> .
a pter
m idi
t cp
Ġ ^
Ġc ork
Ġp f
Ġn pages
Ġd x
Ġh ook
RE CT
ĠR un
uff ix
ME D
ne go
CONT IN
0 5
s asl
Ġc ipher
on ent
Ġd own
for ce
inter nal
Ġref resh
Ġro ta
LOC AL
Ġrfb Client
Ġclu ster
4 16
L ine
U ID
pi o
Ġk e
TIME STAMP
- '
> $
Ġs st
st d
Ġg uest
Ġ' -'
pr m
qu ence
cur r
Ġstrn cpy
Next ImageInList
> }"
O ption
Ġp Parse
ĠR D
ĠG SS
Co mm
Ġdi ff
comm on
>{ <
7 0
D ONT
c or
or st
Ġu sed
ti o
Ġe printf
Ġco spi
Ġw b
Ġma trix
EX IT
Ġget c
ance l
ĠStructure Class
M IB
P ID
R UN
p rec
ce s
IN V
AD ATA
tra it
Ġcall back
INDE X
6 24
I X
L T
R U
T h
e ded
Ġ array
set ting
li m
sp l
Ġih evc
Ġrec ord
n mb
o te
Ġb ail
Ġ1 9
Ġk zalloc
ir m
EN C
ĠU ndef
FRA G
Ġtran sport
samp ling
ĠUndef ined
P alette
d ist
h w
in et
Ġp ng
Ġin tra
Ġd up
Ġch annels
um n
RE AS
ĠC AP
ĠD ata
Ġpro perty
im g
Ġcodec par
Inter face
M sg
N ON
S M
[ %
b k
c u
v cpu
Ġ ent
Ġn f
Ġin stance
Ġv start
Ġstr dup
ĠC PU
ĠA SN
ĠL D
Ġpro cess
time stamp
tl s
Ġre loc
Ġf inal
ĠE OP
do c
Ġpro t
DR V
Ġpar sed
VE CTOR
LV L
Ġes il
ĠMY SQL
Ġos Str
Ġscr atch
rint f
3 0
C LIENT
P L
S upported
c lock
l ld
Ġs upported
Ġv if
ĠS K
DE D
LE VE
la mp
ex pected
enc oding
ĠpS uite
ĠSize Y
C tx
l ar
s ig
Ġp ir
Ġb n
ch annels
Ġh v
Ġh igh
PRINT K
rc u
Ġvalue s
pro g
offset s
MAP TYP
Ġimp eg
br anch
25 6
ĠClose Blob
C TR
Ġi data
Ġi req
Ġc li
Ġp mu
st op
co okie
Ġsh p
TH E
AG AIN
dp b
ĠTIFF TAG
war ning
syn tax
G EN
Z IP
an ager
pe er
ng http
rest ore
Ġrp m
ĠLIB RAW
consu med
e re
r q
Ġc alloc
Ġin st
Ġl mp
ĠF EAT
Ġpi comp
Ġpos ition
net work
point s
mod ule
Ġpd u
4 20
B L
S SION
e f
Ġ ATTR
on ents
rea ch
Ġh i
ul ate
read y
Ġfa ult
Ġmod ule
UNI MULTICAST
P os
m tu
Ġp Tab
Ġb ounds
Ġf ac
Ġin stall
ar se
Ġ1 000
Ġq p
sc r
mb ol
CO RE
di rty
DI O
ĠY R
Ġrec v
NOT SUPP
rep lace
FIL TER
d y
re maining
Ġf open
Ġd flag
Ġth e
var i
Ġexp licit
sup er
MAG IC
D b
F IN
re mote
ĠE AS
Image Data
res sed
ORD ER
Ġdesc ription
Ġpg m
Ġscan line
direct ory
TIF Y
RET URN
D is
F AC
X C
k dc
p ower
in v
de lete
ase cmp
ne g
Ġcur r
Ġcount s
nc asecmp
SK IP
BYTE S
ĠSetImagePro perty
Up date
c um
in sn
ti l
ĠB N
po se
Ġopt val
IS OM
De sc
d en
g lobal
o le
Ġc x
Ġb ig
Ġv dev
Ġps rc
ME DI
MA IN
ĠW idth
NT AX
chunk s
Not Supported
6 5
I f
M ap
b p
Ġc trl
ti cket
co pe
tic ity
Ġqu ery
ĠCL ONE
REAS ON
O VER
d ma
e b
n l
Ġ xt
Ġv q
UL E
ĠP ER
and box
Ġcm s
RA N
DI RECT
Quantum Pixels
sy m
ĠENO DEV
ĠZ IP
ĠSN DRV
PRIV ATE
ĠEOP NOTSUPP
B ER
r w
x ab
Ġf lush
Ġf unction
Ġf lip
Ġa e
Ġme di
sh info
ĠO S
VER IFY
SY NTAX
ms r
. %
D BUS
V R
Ġi ss
en ded
Ġre quired
do main
ĠC C
ĠC h
Ġma in
LA ST
port s
TO O
tif ic
Ġdist ortion
ATOM IC
2 000
A F
P o
re try
or al
Ġt count
RE ACH
loc ation
In it
io vec
Ġmsg hdr
Ġpi mv
IG NORE
HE V
vp n
ĠQuantum Range
Ġimg data
Ġht ons
h ook
j or
Ġs vm
ma g
al ign
Ġin f
ti z
Ġg amma
Ġh d
ĠS IZE
con tent
il legal
ser t
per ties
ok en
TH READ
lay out
d s
f h
Ġs igned
Ġd rop
ĠS W
pa que
Ġw s
ĠI s
PR OP
PRINT F
sh ow
Ġsh are
ĠH eight
Ġun ion
string s
local s
Ġmeta data
CONTIN UE
> !
w q
en s
Ġp tmp
Ġb prm
Ġu dev
ch g
ĠA P
type s
Ġct b
ID X
Ġver def
rd c
CP U
SO CK
band width
Ġbc m
Ġcat c
Ser ver
1 00
L AT
T CP
s ad
u ction
co ver
Ġw p
ĠI HEV
la in
sc a
buffer s
res olution
Ġsc m
Ġ>> =
Co uld
Ġinter p
Ġdec oder
Ġifa ce
normal ize
D ouble
i ble
v ma
Ġp oc
tr unc
Ġre x
me tric
Ġa pr
Ġh ard
ĠG P
op er
ĠW ARN
Ġcur sor
sn ap
String Info
Ġloc ation
Ġpe ek
18 9
BUF SIZE
Ġsys log
Le ft
ĠSTAT US
G ener
] \\
a tures
y c
st y
Ġu ri
ti ate
Ġm t
pe at
str ict
ĠP arse
ri ve
Ġvalue len
count er
Ġav ail
Ġsy nc
rect ory
ryp ted
ĠASS ERT
T S
e printf
h y
p oll
Ġe ig
Ġstr to
Ġa ct
Ġch ip
li ver
ĠD o
Ġz rtp
inter cept
Re quest
Set AttrId
NS AP
ĠBIT S
ĠUstr cmp
Ġeig rp
j mp
o in
te ct
le ave
name s
Ġse p
In put
CT ED
ĠMagick Core
ĠV al
UR CE
Color space
SR C
ILE D
Ġfil t
Ġpost script
Ġpir lvl
ĠMagickCore Signature
3 3
C OPY
E G
m on
Ġb d
Ġin valid
Ġg uint
ĠM OP
Ġk vp
Blob Size
ĠGet BlobSize
field s
fe atures
fail ure
ĠSize X
Ġnon ce
HAND LE
ces sed
CTR L
ĠIHEV CD
u pt
Ġ. ..
Ġb u
Ġn ow
ĠE AGAIN
ĠP ACK
ul ator
sh ould
ĠU S
Ġav g
FA ILED
attr ibute
Ġdi gest
SK B
ĠPER F
7 4
C OR
F LOW
R TP
Ġl z
Ġt num
ĠC UR
di ct
ĠK SZ
check sum
Ġtg a
IAL IZE
P LANE
Ġ LE
Ġc u
Ġp ing
Ġu rb
ti ty
AT URE
Ġout buf
Ġas n
File Name
Ġfl atpak
SER V
Ġld ap
Bo olean
Ver sion
, "
C reate
C opy
o ta
q index
Ġ Start
Ġf b
Ġh dev
ERR NO
ĠF AIL
sc al
block ing
Ġread len
Ġtime o
tile s
ADD RESS
ĠReadBlobMSB Short
DONT WAIT
F T
I nd
R ST
c rea
k s
o ot
Ġs aved
ma ke
set tings
Ġse le
Ġse curity
sh dr
MP LE
af ter
VER T
SY N
ĠLD AP
5 9
G LOB
r ight
v iew
ma ster
Ġre try
Ġu addr
Ġo e
Ġr ing
Ġt k
ĠS U
ĠD H
ĠD M
pro t
STR U
BLOCK S
ĠUndefined PixelTrait
3 8
F unction
V dbe
X T
d m
d x
r s
r mt
DE N
Ġen queue
Ġse cond
ĠMagick Boolean
BU FS
AN T
Ġsc si
ĠRE G
Ġsub type
GE ST
Ġgp lot
FLO AT
O THER
v b
v l
z val
in tr
se tof
te cted
ch ine
Ġk ernel
ĠP EEK
ver def
Ġtr ak
ĠV er
TI FF
AS N
ab ac
ĠO pen
Magick String
Ġoff setof
use c
color s
Ġus age
lar ge
D i
J ECT
Ġe k
Ġt con
IN ED
ro ute
fo re
ing le
um my
ĠD C
Ġto t
em on
ING LE
Ġth resh
Ġattr ibute
Ġdis k
ĠMO DE
Ġssh buf
ĠMagickBoolean Type
C ur
M PEG
re serve
Ġb t
st h
Ġl l
ht ml
Ġsh a
AN CE
be gin
Ġvm case
PRO C
ek Blob
conne cted
Ġtim r
ĠNum Channels
ĠSe ekBlob
> =
F AT
f ill
s vc
Ġs mtp
le ader
Ġd a
Ġr size
Ġcon tainer
ĠP RO
Ġal low
Ġver ify
Le vel
Ġihevc d
cum ulator
; '
S ub
h len
t or
Ġl ineno
Ġo wn
Ġd j
Ġr rd
ĠN FS
Ġh ave
ĠR AP
Ġ' ;'
Ġbuf size
oc ument
sh a
pro gress
ĠU DF
qu ery
ĠGet First
Ġstart code
0000 00
work er
ass is
LEVE L
ĠRAP TOR
ĠGetFirst ImageInList
M in
i od
Ġc ert
en um
Ġ" \\"
le v
Ġd q
ro ut
err upt
str uction
low er
comp ress
ph y
ension s
Ġck ID
Colormap Index
ĠCOPY THE
ĠCOPYTHE CONTEXT
! \\
6 6
L ink
P age
T EXT
b url
v lan
Ġi a
Ġv mb
ĠN F
Ġco m
Ġh mp
RE NT
Ġk arg
end ian
Ġret v
ĠT H
po st
lu ma
Ġlog ging
Ġpos ix
FO UND
Ġbl ob
Ġrota ted
( )<
I ENT
p mu
s f
ge tu
Ġ3 0
Blob Mode
EN CE
EN DI
ĠRead Binary
SO URCE
bu ild
ĠOpen Blob
ENDI AN
ĠReadBinary BlobMode
B CM
K E
R SA
id ge
get c
ĠI FF
ĠG PM
TI MER
che ma
ĠO T
Co eff
PRO T
UP T
ust ed
PI CT
Ġdis card
disp lay
spl it
ĠGPM F
9 5
V LAN
i entation
p g
s addr
t xt
co spi
ic s
ĠH andle
MO UNT
HE L
ĠINT ER
own er
ĠVal id
C F
E P
H IGH
N AL
i ctor
k ernel
s afe
Ġs x
Ġv A
ĠN L
Ġt val
end point
Ġyy msg
mode s
pic ture
Ġta il
stream s
word s
Ġtrans fer
ifi er
H as
Z ER
en ame
Ġstr str
Ġstr ip
Ġm idi
co uld
ĠMagick Size
Ġz ero
LEN AME
Ġno tify
Ġrun ning
Ġca che
IM G
REC ORD
ĠMagickSize Type
> |<
B ad
Ġs mb
le ep
ug h
Ġe h
Ġm g
ĠE TH
pa tch
ĠP K
Ġ3 1
RO UND
iv d
ĠSC SI
PROTO COL
imp ort
ĠAP LOG
Coeff s
B B
V ar
Ġi con
Ġp W
Ġin c
Ġin teger
ed ia
AC L
ĠB O
Ġal en
Ġline size
ĠINT RA
TIME OUT
Ġsa fi
MAR K
ĠPACK ET
) :<
b a
b ut
p ct
Ġi e
Ġl ptr
il ity
Ġval bool
es il
NO TIFY
sh are
Ġcm sg
CO D
mo re
Ġ5 12
Ġoff s
Ġdo main
Ġlist en
SY NC
RES SION
Ġvmb reak
9 0
> ><
Ġi i
Ġv net
un able
RE SP
ĠC F
ĠI mp
ra ce
ex ist
ITE M
ĠSetImage Extent
enti ty
meta data
Ġic sk
EMP TY
D CT
b size
s nd
in f
de pend
ar ning
Ġh p
ĠC VAR
if ic
ME T
ra tio
PE EK
Ġtmp zval
pic s
fi fo
Ġal ign
CON D
IP v
are na
ĠSetPixel Alpha
Get AttrId
REF ER
ĠTIFF Error
PU SH
Ġchroma ticity
avail able
A rg
M G
R un
Y P
u ble
Ġ End
Ġf it
id ue
Ġg ray
um b
ĠE THER
RE TRY
ĠC om
Ġj ob
SE ND
Ġq t
SH ORT
OL L
Ġcolors pace
ĠRec ord
Unable To
Out put
S UM
T UN
g ap
tr ns
al igned
Ġl bs
th an
Ġh and
ĠP ART
sh utdown
lock ed
EN TRY
ld ap
RO UT
Ġmessage Content
Ġsz Line
Ġ"[ |
** **
Ġsubo pts
ĠIO CTL
? "
M AL
e v
i lities
o to
p op
x e
Ġc rm
IN PUT
Ġne sted
ĠD CT
ac cept
DI GEST
UT DOWN
mar gin
RD ONLY
Ġstrl cpy
G RA
c rypto
g round
h uge
l sb
Ġ \'"
Ġ" :<
me di
Ġl fi
Ġd ctx
Ġr mt
Ġm r
ĠD IS
ne ed
ra i
ic mp
pro perty
for med
pp end
GP IO
Ġtimer i
Ġng x
ĠMACROBLOCK D
Comm and
ĠOS AL
Ġ\'" \'
C U
M i
t le
Ġi ocb
Ġs afe
Ġs lave
Ġp ol
se cond
Ġre set
ĠP ro
Ġst bl
ĠL XC
CON F
frag ment
Ġgs o
tran sport
COMPLE TE
Ġfac ilities
D H
S ource
f il
s rai
Ġb w
to re
Ġm on
ĠR MT
ĠA U
OP EN
Ġpar ser
SH ED
comp ressed
match ed
Virtual Memory
mag ic
a w
g n
g rp
t c
Ġi mm
Ġre move
Ġre mote
ti v
Ġr h
of t
do uble
ĠP age
par ate
De bug
ĠJ PC
Pa rt
irq restore
Te st
- %
N OR
T he
g b
o str
r andom
s uffix
u dp
Ġs rp
er tific
en se
Ġ" |<
te ll
Ġo ver
ĠT AG
as ses
LO OP
ne ss
print k
Ġse arch
ĠV AL
ĠReadBlob Float
Ġun ique
Ġmi INT
us ing
sn mp
Data Size
QU OT
Res ource
ass ert
ĠBU F
Ġvalid ate
Ġflo p
Ġte e
ĠPH P
MEDI A
OTHER S
ĠImp ort
ertific ate
2 3
E AD
g no
Ġf ull
Ġh f
RE SH
ĠM ac
pa tial
Ġx frm
ĠF D
Ġnet bk
Ġac tual
comp onents
SP ACE
AME TER
BO X
PK T
fix ed
Ġcmpt parm
VR RP
A n
N EXT
S ave
f atal
Ġre peat
Ġf seek
al len
ĠN o
Ġa pe
Ġh b
Ġde lay
ĠV CPU
Ġpo int
SH UTDOWN
mem set
Ġad just
OK E
ĠZ END
Ġfrag ment
packet s
sec ret
mod rm
ĠRecord Length
allen ge
/ "
0 7
S y
T oken
l b
in sert
Ġp ps
Ġin o
ti m
Ġd uration
ss h
at ing
ĠF I
am ily
IP C
PAR SER
Ġph ase
Ġrlvl no
pac ity
RAN GE
J PEG
l ineno
r tr
x d
Ġs ll
Ġn ump
id ct
Ġstr asm
co res
ĠE lf
Ġ2 8
ĠR O
arg v
ol ve
ex im
for ward
Ġsh utdown
Ġal l
Ġread er
ĠY V
ke v
lement s
+ '
5 4
a pic
h s
l lu
o ice
Ġs up
Ġs top
in val
tr ate
id r
Ġk db
Ġ' +'
par ator
ter min
Ġcl t
recv msg
Ġck DataSize
WIT CH
FAT AL
B R
F ER
M V
O r
g ss
i ver
re m
Ġc tr
str ain
ptr an
Ġres no
UN SUPPORTED
read ing
Ġti cket
Ġdi rectory
Ġsub sampling
frag s
Ġrun length
tm x
ĠCopy MagickString
Ġhi res
vari ance
>= =<
F B
W idth
e ometry
n am
Ġd len
Ġv s
Ġv da
ĠN CH
Ġm rb
pe ct
RE SET
ĠM V
Ġ2 6
Ġk w
OR IG
AL U
pt ype
ĠL ist
ĠV ER
VAL ID
ac cumulator
DR OP
Ġpo licy
ry ption
Ġ12 7
Ġsn ap
Ġvar p
dig it
FIX ED
PK CS
rap per
>! =<
# %
4 8
H ash
L ock
L ay
W arning
c abac
f etch
Ġs ixel
Ġs dp
Ġre served
Ġin line
Ġe l
Ġd eno
Ġv lan
Ġerr buf
LE G
ĠB TR
Ġtr ace
EX P
header len
Ġfp s
Ġfrag headerlen
Ġrfb Encoding
Ġus char
Ġfil p
HO ST
ARG S
orig in
ĠPART ITION
ĠBTR FS
E ST
M ul
g ot
Ġre ce
Ġre port
Ġm map
Ġch assis
end or
DE ST
ĠA D
nt er
Ġme ch
AR CH
Ġ3 3
par ms
cmp ts
Ġopt name
AN GE
mem cpy
Short ToQuantum
Ġcommand s
Ġor ientation
ĠScale ShortToQuantum
RD WR
Ġdb g
Ġelement s
Sample s
ĠCon strain
Ġflo or
STRU CT
ĠConstrain ColormapIndex
A r
H ASH
T AP
f unction
h id
i pi
Ġf read
te k
Ġv olume
un map
Ġh uge
do es
INT EG
ip tek
pro perties
Ġcpu id
ab ort
comp ression
ĠX ML
SP C
enc y
bin ary
Ġalloc ated
Ġan al
ee e
R ect
S t
S wap
i ent
o ol
t gt
re served
Ġr ight
ĠP seudo
AD MIN
uan tiz
ext ension
PAR AMETER
Un ique
ĠBGP TYPE
initial ized
yc le
ĠPseudo Class
, '
I SE
s id
on d
or ith
le x
Ġl ld
Ġd ummy
Ġv B
Ġv host
ĠR PM
if d
Ġ' ,'
per m
Ġse en
ĠMagick Max
che me
Ġun it
log ging
pl ugin
AP I
sub type
Par ser
Ġprefix es
clu ster
ĠAcquireImage Colormap
Ġmul ti
GLOB AL
Ġgray map
Mi ssing
D Y
G SO
S AS
l one
l blk
l ru
p w
Ġs pace
Ġc map
Ġb ind
Ġd im
Ġg it
Ġg boolean
it or
IN O
Ġch ange
ĠP FMT
ĠF ile
CH ED
add ing
FF FF
col umn
ation s
PAR T
Ġqueue Item
Next Image
Lo op
9 2
g c
on tal
Ġn ad
Ġn args
Ġe mpty
Ġo k
Ġo idc
AL T
Ġst mt
ĠD ATA
Ġnew inet
Ġkey len
im er
dis abled
CP OPT
device s
tup le
Ġdis play
CR YPT
SUB TLV
Write Reg
Ġfield s
SIGN ED
Ġyyss p
oriz ontal
AV AIL
Ġiss pace
Ġws ctx
ĠFI LENAME
4 00
C ap
v id
x ception
Ġi eee
Ġf amily
ad m
ti ble
Ġe ob
Ġr buf
un supported
str ip
up per
Ġex tr
ME xception
Ġen tity
Ġse ctor
Ġ<< =
di m
IP ER
ĠThrow DC
Ġgen er
group s
DO T
Bo ol
Ġab ort
ĠThrowDC MException
P D
S ound
g ain
m di
s XXX
Ġ DEFAULT
Ġi kev
ge d
Ġn al
id entifier
ĠM D
ST EM
is er
ve ctor
BU SY
Ġrc v
Ġal ias
RO M
ib u
Ġsi te
QU AL
irq save
cred s
BIN D
ĠStructure Flag
Ġgt k
TIMESTAMP ING
G I
P ri
S INGLE
W D
p te
s ide
Ġn ot
Ġl f
ĠE V
RE AL
DE CODE
con tainer
ip v
ĠD PRINTF
Ġip h
ĠU Char
ĠU DP
res ource
AS K
Ġext ension
Ġmi ssing
Ġro se
Ġup per
thread s
Ġdd s
ĠDestroyImage Info
Ġpayload left
Ġca pable
Ġlz x
T TEST
i i
i ted
m any
o ve
s cope
ma dd
le ss
Ġe o
Ġa iptek
ĠM IP
INT R
Ġout file
ra tion
UN IPER
EN ABLED
BIT DEPTH
Ġnet work
Re c
EE E
ĠString To
HIGH BITDEPTH
MET ADATA
ĠETHER TYPE
2 7
5 7
F ULL
L oc
T ile
V OL
c alloc
n xt
t ty
w orst
Ġl fm
ĠS ET
li fe
Ġne x
con vert
ĠG TK
NO TI
MA ND
io s
DI SP
DI SC
UT F
Ġrd p
socket s
utt on
Ġnd pi
Per Sample
Ġtrack s
SHA RED
sw itch
Signed Long
ĠValid ate
Has AttrId
ZER O
Mul ti
B uf
E AX
M a
b or
c ut
y v
ar p
ad just
Ġstr ncasecmp
ch dr
pi ck
ĠP OKE
Ġma chine
Ġyy state
ver se
Ġres idue
ex pi
ĠW rite
ic ator
UR L
sub mit
Ġmp t
Ġred map
Ġgreen map
PA K
Ġblue map
USE D
sup port
ĠNET IF
F P
F RM
H T
I ns
I CK
L ast
P rintf
s igned
w ake
Ġi b
Ġs ad
Ġb mi
Ġf q
Ġf path
Ġh op
if ication
IC Y
Ġad apter
PP ER
event s
Get Error
REG ISTER
pri ority
PRE D
Ġrx opt
ĠCO DE
FIL L
book s
Ġsyn th
* "
B T
B IG
H andle
N ode
d tor
h int
in te
Ġp an
Ġp tl
Ġf ptr
Ġe free
Ġd rm
Ġd river
Ġch r
ĠP F
as ync
SE LE
Ġq uant
ĠF S
sh ake
Ġcp l
Ex pr
Ġindex es
Ġlog ical
Id x
level s
cmd s
Ġchunk size
cl one
If LE
Ġhard ware
COR R
Ġmg mt
ROUND ING
Ġsite arg
E OF
T LE
d u
d uration
e q
Ġs orted
Ġ" )"
Ġo z
Ġv t
\\ \
ĠS WITCH
pa ttern
ĠP a
map s
SI X
ĠD BI
Ġlo ff
comp s
ĠRE T
ĠZ VAL
COM MAND
hel p
En tries
ĠSync NextImageInList
Ġinfile size
ĠFormatLocale String
HEL LO
CORR UPT
ĠDBI c
c ertificate
s lots
w in
Ġi buf
Ġo len
Ġd g
Ġm xf
Ġco eff
Ġh dl
Ġk v
ĠR A
ĠT race
at tach
ra mer
Ex if
ĠGet AuthenticPixels
auth entic
28 4
Ġreal m
FUN C
tric s
CLO SE
Ġdq coeff
ĠBO OL
Ġsup er
ramer ate
> :<
G roup
P OP
T ABLE
d ur
Ġi gno
Ġs ingle
Ġp hdr
de s
co ap
ĠM in
as dl
AC T
ĠL AST
dev s
ic ient
ĠV AR
Ġz bin
ĠENO ENT
ĠMS B
REG S
PRE SSION
WA RE
Ġadd reply
Per Pixel
pd u
G eometry
R ate
W RA
v rrp
w ide
w ay
Ġ AT
Ġs ip
Ġs tore
ma il
Ġb m
Ġl p
Ġl lc
Ġe f
Ġo u
Ġo vl
Ġh ub
SE CTOR
ĠB YTE
ble m
ver ifier
ĠL MP
mm ove
Ġz de
ld ub
Ġgf n
Ġ6 3
Ġcfg t
var s
Ġ"- -
DEF INED
CRE ATE
Ġown er
ĠMac Ctx
An y
INTEG ER
= \'
D S
T U
U ser
b ar
k b
n of
s core
re co
Ġc ustom
Ġe ther
Ġr ule
Ġr gb
ĠE MSG
ĠI MAP
IT H
LO OK
ir c
ĠEX PRESSION
Ġid entifier
ast er
ĠIn put
Ġfil m
44 4
gf n
ALIGN ED
Te mp
ĠSY S
Ġfix ed
cover y
QUOT A
* <
A Y
B ack
h i
p ng
Ġs ack
Ġp Data
Ġf w
Ġm h
co s
un pack
dr iver
SE G
ver tical
par ameters
EX CE
em it
Ġfi ber
Re ply
LAB EL
Ġmod s
Ġpass word
ĠWavpack GetError
From List
ĠASS OC
ĠTrace Event
ĠWavpackGetError Message
4 22
c sk
c group
p el
x ml
Ġc group
Ġp ts
se p
Ġb er
Ġu len
ing s
Ġ2 3
con tain
ĠF LAT
Ġend point
put s
PE D
CH UNK
pro xy
cmp t
BU ILD
Re f
sy mbol
Ġbe a
Ġmo v
ĠAcquire NextImage
Ġsf p
default s
itt le
sing le
ĠPH AR
ĠImport QuantumPixels
orith m
< /
E LE
L abel
Q UE
U DP
V iew
c f
c li
c dc
Ġ SV
al D
Ġin buf
Ġe ff
ĠS G
ĠB lock
ĠG UEST
tic ast
ĠW B
Ġtype def
em u
ca pable
EE P
mer ge
Pro file
trans fer
Ġtoken s
ea tures
spec ified
Al ign
disse ctor
act er
A SS
H W
b f
c ast
p le
q uantiz
Ġi rp
Ġs pp
bl ic
ma y
Ġn t
Ġg fs
Ġco ord
ĠM L
Ġ2 2
Ġma ptype
con cat
EN CODE
FF IC
IL L
ĠDe lete
SP S
iff ies
0000 000
Ġpk to
ACCE PT
doc ument
getu int
Cap ture
ĠRET URN
ĠFLAT PAK
FFIC IENT
J O
R LE
W rm
m k
n f
Ġs v
Ġc lock
Ġf mode
Ġn skb
Ġd n
ĠN P
ch ain
Ġpa t
Ġnew serv
Image FromList
ĠL en
Ġerror s
ĠMagick Signature
EX IST
Ġta b
ĠO ut
min us
Ġdi com
Ġad ata
und er
Ġinter lace
comm it
Ġsn mp
pass word
MIN LEN
ĠST ATE
VPN MULTICAST
VPN UNICAST
VPN UNIMULTICAST
POL ICY
assoc i
lld p
ĠEMSG SIZE
A RE
D ec
M note
h ave
i code
r sp
Ġ0 0
Ġf m
Ġf eatures
Ġn ntp
Ġl rc
Ġt b
Ġw c
uff icient
Ġend ptr
Ġse quence
In stance
Ġtr af
ĠH EV
Ġmax imum
OPT S
fe rence
YP TO
9 1
C all
C ERT
L ACE
O W
W PG
c time
c rop
i val
s o
z one
Ġ od
Ġ ER
ma th
Ġin link
tu n
Ġd ash
Ġde liver
ur i
AT CH
ĠT EMP
ĠA CL
Ġj id
AR GET
mb x
ra c
FI RST
Ġis o
lv ls
Ġac m
ĠENO T
ph an
ĠJ SH
Ġcode page
.. ."
Ġitem s
Tr ans
Ver ify
ĠRe set
IGH T
gener ic
overr un
ĠVAL UE
reco gn
I A
O G
h d
o if
ro se
Ġh fs
ĠP AM
SI n
ĠH DR
DI CTION
\\" "
tra ct
LS P
TO LE
De code
Pro cess
COL OR
Ġgd Image
TUN NEL
INO DE
ĠHEV C
an ts
Ġc q
Ġp C
de blocking
Ġu ref
Ġe crypt
Ġv ec
Ġv irt
Ġg char
ER Y
AT ED
ĠC lone
Ġma ster
SE Q
Ġst cb
ir on
sc reen
ra id
ex ce
error s
Ġmax count
dis card
char s
TE MP
net dev
Get I
Ġdis able
skip ped
Ġ"/ "
PO W
colormap s
DIS ABLE
Ġpair s
NOR MAL
Ġecrypt fs
7 2
A A
C NT
K O
T MP
e ob
f loat
Ġc rypt
er n
Ġre strict
or z
Ġd r
Ġd ptr
Ġt ss
Ġa ck
Ġw alk
par ameter
MA N
ic tion
Ġname s
list en
TYPE S
Ġ/ =
AP P
Ġdi v
Ġrd mult
Ġmo re
seg s
Ġoutput buffer
Ġpri me
thdr len
Ġmedi a
oto metric
WRA PPER
B MP
R ARY
S rc
b reak
Ġs andbox
Ġif index
Ġin Name
ti ck
id ent
ĠS MB
Ġerr str
Ġj ump
sk top
Ġnum comps
EN ABLE
Ġti d
fault fd
Ġuser name
use s
Ġimp licit
LIB RARY
ĠSK B
ĠFAIL URE
ĠRO SE
nam ic
SAS L
Ġmissing args
ĠMSB Endian
> @
K DC
c al
l sp
x xh
in ation
ad ata
Ġe b
IN SU
Ġa pic
el p
ock et
Ġx args
AT OR
ĠF OR
ĠF rame
Ġres level
Ġfile pos
Ġsw ap
Ġle x
ĠGet Quantum
File Resource
temp oral
priv ile
COM M
fm ts
Ġdevice s
IE S
FE ATURE
oriz ation
sector s
OVER FLOW
snap end
Unique FileResource
ĠSWITCH ABLE
ĠSYS ERROR
8 3
S G
a pi
Ġi chdr
Ġs lab
Ġin tr
Ġu midi
ti ll
Ġe i
ĠN EXT
Ġh int
ĠS SH
lse xt
Ġde leg
Ġx en
dec oder
DE L
TR OPY
Ġme trics
ĠF C
mb y
Ġ3 4
Ġtr usted
ĠV TP
mode l
ab bb
Ġbit tok
NUM BER
Read File
Ġapp log
SA MPLE
Ġfilter s
sele ctor
Ġce ph
clu de
ĠONIG ENC
SPE C
ens ity
shdr len
ĠList Extension
INSU FFICIENT
/ <
G ED
e ip
h a
w er
Ġc mp
se parate
Ġre alloc
Ġf atal
Ġf etch
le st
Ġl a
Ġd ma
el lo
ĠS F
as ic
no w
ol ute
Ġres tart
12 34
Ġas path
ost script
SC AN
UP DATE
Ġno block
Ġmy data
PA Y
ĠST ACK
OUT PUT
PRE FIX
mal lest
Se ction
Ġsubo bj
Ġwr iter
overr ide
ĠSU CCESS
LOOK UP
F R
Q u
R L
_ %
b ig
d addr
e qual
f req
u age
x x
or ator
Ġf at
le a
Ġv f
rea son
Ġh c
ĠM P
Ġy i
ON CE
ĠP al
ĠI CB
PR INC
Ġq alc
Ġex im
CE IL
ou te
FA ST
Ġser v
Ġio vec
dp x
au d
config uration
trans action
PO INT
argument s
OPTION S
REP LACE
Ġsr cp
Chunk Header
Ġpl ugin
LIT TLE
ĠLE X
ĠICB TAG
L U
R I
W ith
i able
p info
p block
x C
Ġs mallest
ta ched
Ġp key
se lf
al ias
al ready
Ġo id
Ġr len
Ġr ip
Ġt lsext
\\ '
Ġcon vert
Ġk ex
ĠP IM
as n
AC TI
OP CODE
SI D
ver bose
Ġse parator
ĠO M
blk s
Ġ'\\ \\'
Ġio ctl
su c
ĠIn formation
Par am
Ġmc ast
CONNE CT
BL K
Ġda emon
Ġigno re
B itmap
R dm
W rapper
a head
b nd
s ma
Ġre pl
Ġb a
al ity
Ġo c
str ips
ĠA CTION
ĠB TIF
ĠG IT
ĠD O
EN COD
ap s
FF ECT
qu ota
ou s
Ġpi m
Ġsrc ptr
valid ate
Ġmap length
cs um
Ġusb dev
ound ing
QU ERY
item s
TER M
Ġcred s
Ġnl msg
REC V
Ġcontrol ler
RC V
Ġli kely
ang uage
ĠEnd GetI
Ar ray
ĠBlock Align
PAY LOAD
5 8
B P
F ROM
G S
U X
b ps
i rect
j i
l ers
s l
s lave
Ġs ide
Ġp rep
Ġre serve
or phan
Ġin itial
Ġe lem
Ġd cb
Ġv ideo
Ġr pc
Ġg re
Ġint errupt
Ġsk cipher
ĠC LASS
Ġne lements
as conf
LO T
ref resh
ĠRead D
TH RESH
alloc ated
be fore
sock opt
ĠDestroy String
IR P
Ġapp end
Ġtran shdrlen
RESP ON
ĠML X
recogn ized
0 6
N one
N ative
T un
Ġ OR
Ġ ans
Ġs len
re ment
re order
ta p
Ġb relse
Ġn bytes
Ġin len
Ġe mul
Ġd rive
Ġr u
Ġr ock
IN ST
pe ek
ĠC o
ĠA ppend
SE ARCH
Ġq n
Ġq coeff
Ġdst ptr
Ġz Right
IP AL
Ġpc nt
RO W
Ġfd ct
Ġss id
Ġqu ote
Ġmac ro
-- --
ĠSN MP
Ġmat var
Ġprinc ipal
ĠREG ISTER
Ġqt size
ĠVER IFY
ENCODE D
. *
= '
= =
D UMP
D ocument
M M
O ST
U ns
U ME
e lem
g d
g y
m anager
t sc
v d
Ġs ched
in fl
Ġp lay
Ġre new
Ġl data
Ġl ower
Ġo b
ck sum
ĠE BUSY
ĠM I
ĠC MS
ĠR LC
ri ptions
Ġpa ttern
ĠA PR
Ġ' ='
Ġout Name
Ġex pi
ist ent
EN V
FI C
ok e
comp ile
arch ive
Ġinter n
Ġcode d
link s
Ġsz Ext
DC AP
Me thod
Res ult
Res olution
Add Wrapper
Ġast ostr
ĠWavpack AddWrapper
Gener ic
ĠDo ReadFile
ORIG IN
associ ation
IRP DCAP
4 3
L oad
N VM
O n
P KEY
e ap
m time
t stamp
Ġs array
Ġc f
Ġf inish
Ġin s
Ġv tp
Ġt str
Ġa sc
un ted
Ġde quant
size s
>< <
ST AND
SE EK
ĠF IR
UN IT
ĠU T
CE PT
ĠReadBlob Double
Ġ6 55
min q
Ġac c
ĠENO BUFS
ca ched
ĠEN D
Ġflow label
Ġsa mp
AB ORT
ĠDEBUG F
Ġntoh l
Ġtm size
ĠFormatLocale File
GRA M
dur ing
Ġbea ch
QUE UE
ĠPal Header
ounding Box
ĠFIR ST
c wd
g uid
k ind
m is
s x
Ġ Endian
Ġc ancel
se en
de reference
Ġb tif
Ġg des
ER AL
ĠM NT
ĠC var
ĠR B
ĠR ANGE
as on
Ġpa m
up ted
SE NT
PR S
ĠF RA
ĠF MODE
UN AVAIL
pro cessed
AN AL
Ġas conf
tra ce
vm x
Id ent
Ġtime s
Ġtest flag
PO ST
Ġap du
56 78
FAC TION
ĠSW FACTION
SOCK ET
crea ted
Or ig
NOTI CE
G IT
R ULE
p ck
q level
r src
er Info
Ġp seudo
de p
Ġr lim
Ġw mem
Ġme mmove
Image Property
Ġ3 6
PE AT
mm u
Ġav p
ect or
Ġcur qlevel
Ġ6 0
Ġhdr s
Ġsy m
MT U
Ġsi mple
tif ication
pred ict
COMP AT
REP ORT
Ġiv d
Channel Context
MAR KER
ĠCOMP S
sca pe
REFER ENCE
ĠAppend Image
2 9
7 5
E DED
T V
c ancel
d h
e st
m r
p in
x F
Ġs buf
on um
Ġr f
ss ign
Ġh bs
ĠS AS
Ġcon d
ĠC lamp
DE NO
ĠA IRPDCAP
Ġj peg
per f
Ġnum rows
CO ST
col umns
EX TRACT
ĠH EAD
alloc ation
lan e
lic ation
PI PE
Ġsys ctl
Is Instance
Ġaction s
DIV IDE
Po int
Run time
UNSUPPORTED PARAM
Ġdeno iser
Ġextr adata
Ins ufficient
Ġeff ect
ĠClamp ToQuantum
B PF
E Q
H AS
I ME
L L
M Y
N P
U I
U ST
b ias
c m
h dl
s ent
u get
od uct
Ġd fs
rn ame
Ġg ctx
Ġa dev
Ġa gain
ĠM AG
Ġ2 9
Ġx id
AT T
ĠP AR
ul k
ĠT PM
cp s
op code
Ġyy error
Ġst lv
ĠL L
ĠW TAP
Ġip x
pro ps
Ġmi ux
table s
LV S
ĠNG X
eg in
ĠCO AP
com ing
Tra ck
gr ity
cor rect
RUN TIME
sty le
Ġzrtp ChannelContext
scal ing
Ġeo bs
Runtime Error
uget lb
F ilter
S pace
c alc
in st
Ġp New
Ġd ng
un ix
ed it
RE AK
ST OP
ĠC ache
ĠR Bin
no ti
ĠB uffer
In File
EX CL
ac tual
ou tof
mi ssion
Ġcomp at
Ġcomp onent
MO VE
mv s
Re q
fd s
SP A
Ġtime stamp
Ġplan es
DO W
pri o
PO SIX
Ġes is
Ġpk g
ĠNum Of
COMPLE X
ĠrfbClient Swap
ImageData InFile
leave s
Ind icator
Ġlld pd
ACTI VE
Uns upported
STAND ARD
Insufficient ImageDataInFile
R ING
a a
n x
s in
u sh
v no
Ġp db
Ġp oll
mp ls
Ġt ls
Ġm er
ce ll
Ġa pi
Ġch allenge
Ġx cp
ĠR C
dec rypt
Ġma l
ir s
bit stream
Ġobj len
Ġpro gress
log in
Ġpar m
\\" \\
Ġ"\\ \\
mg l
ind x
Ġver dict
Ġinput dev
Ġbe gin
ĠDe pth
gra de
ĠZ RTP
lic ate
ĠEN TROPY
Ġhash val
ĠpS ub
AU DIO
PO S
Ġdy ld
FL G
bi lities
Ġcom ics
exist s
ĠAU TH
Exif Mnote
Ġsip x
nof ormat
outof mem
G IN
O V
Q ueue
T M
] %
a tomic
b id
g old
m se
s peed
v ol
w as
Ġp count
Ġf wd
rt imer
le ct
tu id
ct s
Ġd printk
ss ible
ed ge
RE QU
dr v
po ser
Ġid y
line size
time o
Ex it
ĠGet NextImageInList
Ġblock s
ĠQuantum Info
su bo
mit ted
Ġrfb Log
Ġnl h
pk cs
Lo okup
Ġgt co
Ġke ep
ĠGP AC
sha red
8 9
8 000
B AND
C GROUP
H OP
J MP
M edia
V S
Z VAL
h be
p ull
s cheme
u me
v is
Ġc alc
se l
se curity
Ġn components
nd up
ĠN VM
co ef
Ġa flags
fo o
Ġ2 00
Ġk adm
get s
ĠI MPEG
if name
il ing
Ġex pected
ĠB MP
ne eded
UN REACH
ĠU p
Ġav priv
Ġav pkt
ĠH Z
Ġun pack
\\" %
Ġcont ents
SET UP
NE G
Ġdo i
Ġfs m
igh bor
ĠMO DBUS
Ġau to
Ġus in
wr iter
ĠString Buffer
band s
ĠGET ARG
UnableTo Read
ibu ted
ĠMIP SIn
PRINC IPAL
ĠMIPSIn st
/ .
F ET
K DB
N R
P AD
a bove
c msg
d port
s iz
y p
Ġi xh
Ġs ax
en ted
de tail
on y
Ġre ason
Ġf ill
Ġe ap
Ġd ot
Ġr ad
Ġg c
Ġg au
Ġstr ie
ign o
Ġx size
dec ay
Ġj iffies
SE L
Ġnew block
Ġcol s
MA GE
ac d
ĠH ID
image s
ĠThrow PICT
RO Y
Ġdi rection
STR LEN
Ġrd div
PRO CESS
Ġfp u
her it
Ġmo tion
tx poser
ea acd
INIT IALIZE
nder flow
Ġind x
initial ize
rw sem
sca ped
DEST ROY
Ġixh eaacd
Ġstrie q
ĠThrowPICT Exception
C ache
D ONE
E INVAL
O ptions
P LAY
c oding
e red
s rb
t tl
en tr
Ġp info
Ġp Idx
te l
Ġu e
Ġr data
ĠN S
id le
Ġg ra
Ġm is
Ġm buf
un register
ĠS ample
Ġw ord
ĠB ool
Ġyy char
read er
Ġfile size
ĠH FI
ĠO n
Ġinput device
ĠRE Q
Ġattr ibuted
Ġpacket s
FRAME S
iter ation
send er
Attr ibute
ĠAR RAY
CL R
Ġpri ority
sw ap
pre pare
Ġorigin ator
ipi ents
1234 5678
ĠFRA ME
UnableToRead ImageData
% "
F AN
G ID
P NG
R IP
b ro
r upted
z rtp
Ġp error
de tected
Ġu ns
ĠN TL
ce il
ĠC A
Ġw in
Ġnew p
oc ation
ĠL SB
Ġse ek
ex pose
key block
RA ISE
IF L
EXT EN
Ġenv c
node s
US R
WR IT
Ġper m
PG M
Ġqu ir
spec ific
return ed
Ġbus y
Ġstrl cat
nego tiate
phy s
ĠOut put
ĠHEAD ER
gold en
ĠNTL M
3 10
C lose
C ipher
L K
L LDP
P ort
d dr
e flag
i tu
m entation
n ail
Ġi on
Ġs fd
Ġc or
ma jor
Ġb order
to col
Ġd ig
Ġm k
Ġm Chunk
un expected
ue v
ĠS EC
ĠE EXIST
str tab
do t
ST Y
ĠT G
ĠT Value
SE XT
ĠG D
TR A
la be
Ġarg i
ĠL C
ĠL ow
dev el
Ġsh ader
Ġsh strtab
EX PE
qu ote
Ġcur l
Ġmax w
Ġprint buf
ĠJ PEG
SER IALIZE
BO OL
ĠRelinquish VirtualMemory
ĠRelinquish UniqueFileResource
ill ary
.. .\\
register s
Ġbad arg
ĠAL T
ĠCOMP RESSION
SPE CI
CLO EXEC
ĠPK CS
umb nail
Ġino tify
rtr n
Ġsnap len
VOL UME
Tun nel
ĠFIRST PASS
labe led
5 3
: /
e th
f lo
t orage
w alk
Ġp chg
al pha
Ġu d
Ġl val
Ġe report
ro pping
Ġh mac
Ġde fs
ĠE F
pa bilities
Ġx attr
ĠR UN
Ġw orst
ĠA sync
Ġ' >'
ĠB P
ĠF OLL
ĠL IN
read len
ĠW R
list ener
inter p
OF S
net link
sum med
ĠpS torage
coeff s
Ġback ground
BASE D
doc ref
FIN I
ĠDelete ImageFromList
ĠCache View
ĠNumOf Entries
8 2
D A
E F
G RP
H AVE
f ld
f ont
p sn
p wd
Ġs mp
bl ack
Ġb ar
Ġf use
st ers
al le
Ġn strips
Ġl st
Ġv b
ff f
Ġg ui
Ġch ain
RE SERV
Ġk control
AC TION
ĠU n
flag set
Ġis flagset
Re ce
De stroy
De lete
Con ne
US AGE
enc oder
enc ryption
ms x
ng le
CHAN NEL
sign ature
thresh old
Ġpp v
Ġtun nel
bi trate
WIN DOW
CALL BACK
ĠCR YPTO
suc cess
Ġans wer
ĠWR ITE
8 7
9 8
A ngle
B S
K EEP
P ostscript
U nsigned
f rr
o int
s mi
w ifi
an ted
in ux
Ġif d
al og
Ġl sm
Ġo relse
Ġg pio
len t
ĠS ub
str atum
ĠT UN
TR IC
sh ell
Ġ"% .
Ġcur conn
Ġid ct
Ġsc ript
time s
\' ,<
ĠO B
ĠO pt
To Native
EXT ENT
ĠERR CODE
sys log
he re
Ġlib c
ĠTH R
Ġrmt blk
Sy stem
contain s
H eight
N A
X ATTR
h old
m ix
r lvls
re alloc
in formation
Ġstr result
Ġm ic
Ġimage s
Ġcon s
Ġk sz
>< /
ĠR ot
Ġ4 70
Ġyy g
PE ND
Ġtr x
ĠV ert
pro be
ĠH orz
\\" :<
Ġmi UINT
Str ip
IS DIR
Ġstd in
Ġtime spec
Set Field
inode s
Ġtemp oral
Read Reg
ĠTIFF SetField
abc d
wr it
ĠMax Val
down load
ĠReadBlobXXX Short
Endian ToNative
high bd
Ġmat te
Ġphy s
ĠCPU ID
CF G
ĠMin Val
ĠClone Image
ĠPIM V
ENCOD ING
ĠEndian Indicator
Orig in
ĠOn ig
ĠLow Left
RESERV ED
ĠRot Angle
ĠVert Res
ĠHorz Res
A MS
D N
D ST
M ALLOC
N AM
S end
U FF
e ar
i ed
m ss
p v
p onse
s ur
s Tag
y es
Ġ INVALID
se quence
Ġf ramerate
Ġn fc
Ġu name
Ġe of
Ġd port
Ġr ound
ĠN et
IN D
ch ans
ĠE C
RE V
AL LOW
ĠT O
Ġne h
Ġne tif
per iod
Ġnew info
Ġti ck
SIZE OF
di e
Ġmax len
\' \\
ĠO bject
Ġgf p
comp ute
ĠYY LIMIT
ator s
Ġfrag gap
Ġmo ve
rg b
Ġau dit
Ġrun time
Ġck sum
Ġlua V
SN MP
Ġdy n
ĠLoadImage sTag
Ġtg t
bu cket
Ġ40 96
ĠSH UT
Pos ition
Vdbe Add
ĠPAR SE
FINI SHED
# '
% *
7 9
? '
B REAK
C txt
D MA
s lab
w w
Ġs ame
Ġc id
bl ing
Ġu counts
ti tle
Ġl vs
Ġe d
Ġe th
Ġo ip
Ġd er
Ġv n
Ġr py
ĠN UL
Ġt y
Ġm ult
Ġa type
Ġh sr
ĠM cps
ign ore
ĠR X
ĠI W
ĠI EEE
if or
Ġ' #'
Ġ' ?'
Ġq index
ĠG ST
ME TH
Ġyy err
AR R
per strip
ĠD ouble
ĠL IST
Ġop reg
Ġnum cmpts
add recon
def ine
FI ER
TI AL
Ġis onum
Ġget param
RO OT
af p
Ġsi ocb
ĠEN ABLE
Ġrp x
Ġhost name
Ġconf irm
ĠCHECK SUM
DBG LOG
clu sters
Encoding s
Ġorigin ation
Ġacp ar
ĠRun Count
MG R
adjust ment
SELE CT
Ġnt Status
ĠFrame s
VdbeAdd Op
9 7
A sync
I MP
M IS
c x
f inal
i ase
j peg
n id
o id
t od
u ce
Ġs l
Ġc def
Ġp B
Ġp n
Ġn ull
to ol
Ġr dev
Ġt fm
Ġm f
Ġco mple
Ġh h
Ġh ugetlb
ĠS y
ĠS OL
pa t
ĠP er
Ġw ake
ul ated
Ġfor k
ĠB SON
ĠF REE
Ġse m
Ġnum rlvls
pro gram
Ġis param
Ġpi ct
Ġmax frag
Ġaddr buf
ĠTR ACE
Ġref erence
PP S
rd er
gra ph
Ġdec rypt
Res ponse
PO INTER
Ġsu bl
REP LY
AB S
FIELD S
Ġpad len
cont ents
Ġbu ild
Ġhand shake
Ġfragment s
PD U
RESPON SE
Lookup AttrId
Ġmaxfrag len
7 3
> #%
D M
E NO
H ARD
L ATE
Q P
j oin
Ġi pt
Ġs o
en tial
in teger
on ce
Ġ" ,
Ġin bound
ar m
ar cb
Ġ1 000000
Ġo ob
ĠN ame
Ġde ad
RE DIRECT
ĠM em
Ġk mem
str ucture
str ndup
val bool
dec oding
ĠT S
PR I
16 16
ĠD D
ĠEX CP
Ġal go
Ġun link
ty p
Ġbuffer s
11 8
Re set
OL DEN
Ġenv s
ĠYY FILL
SP B
Get Field
Ġauth file
mov i
hand lers
Ġbuff size
SHA KE
wh at
ĠNO DE
HAND SHAKE
Ġnh off
CONNE CTED
[% ,
ĠCF M
Wrm Lock
ĠReset MagickMemory
Rdm WrmLock
ĠReadD CM
ĠNVM RdmWrmLock
alle l
%* [%,
METH OD
A nd
B D
B y
P ower
R oot
T a
Z RTP
r chr
w ants
Ġs pool
en ch
Ġp x
de sktop
Ġb ss
Ġin dir
Ġu l
Ġd tls
Ġd vb
id get
Ġm req
ro om
Ġh orizontal
RE PEAT
Ġk ctl
str size
Ġw eb
LE ASE
ĠA dd
SE SSION
Ġq pc
and ler
Ġout link
ME TRIC
AR CHIVE
free p
ĠRead Property
Ġname space
Ġsh ould
Ġfile s
Ġis digit
di gest
em ulate
12 0
Ġsp rev
To List
Ġver tical
Ġad ap
Ġbo ot
Ġrt i
Ġpb ody
ke ep
SER T
ĠTIFF GetField
Ġan c
ĠString Info
pair s
Ac cept
NON BLOCK
Ġrex it
Ind ication
ICK CORE
ĠENOT CONN
ĠMAG ICKCORE
entr opy
iase s
5 00
6 7
D rive
E SC
G T
M F
U s
c enter
k f
r fb
s andbox
t sk
w eight
Ġs ent
Ġs pec
Ġp wd
Ġf utex
al ert
Ġo pipe
Ġg lob
un ch
str a
Ġx refs
ĠC AST
ĠA ss
Ġyy l
Ġarg ument
ĠF LOW
Ġnew page
Ġcount er
Ġext end
DI GIT
Ġaddr s
min or
Ġio arcb
Ġbo ard
Ġsy mbol
Ġno te
Color s
Ġroot fs
Ġau dio
ĠpS rc
CHAN GED
ĠAR M
eno ugh
Se ek
RT ree
ĠFormat ImageProperty
Ġat tach
ang le
Ġer rout
Th is
Th umbnail
Function Def
COND ARY
Ġbm val
3 1
5 2
M C
N L
O bj
P AN
W O
g ctx
i ch
i str
m map
n sec
s ome
u dio
u til
} '
Ġc ra
Ġc ib
Ġp thread
se ss
Ġb zrtp
al lo
Ġv c
Ġv fs
Ġt file
Ġstr rchr
Ġm lx
Ġm wifi
len d
Ġh rtimer
ĠC OL
Ġ' }'
Ġdata o
ĠF alse
ĠF ATTR
sc si
ne sted
ĠL INE
ĠW M
EX TRA
Ġenc oder
Ġbase line
Ġph otometric
FOR M
go o
BO UND
Ġsd s
Ġalg orithm
Can on
BIN ARY
nor m
ĠSE EN
IDE O
ĠpW TV
depend ency
PART ITION
inte grity
pel s
Ġmwifi ex
ĠpWTV oice
7 1
B oundingBox
I p
N K
O ld
O OB
c orrupt
l at
m ented
o v
Ġs low
Ġc info
al one
ad j
ad cast
Ġl if
Ġo verr
Ġd en
Ġd ate
Ġd buf
Ġr oute
ĠN SV
ĠN UM
ĠM PT
OR K
pt p
Ġchar s
DE LE
INT RA
ĠA X
00 02
Ġq uan
per mission
ĠD TLS
es n
ĠL LC
MA Y
Ġtmp list
Ġop def
Ġlength s
ic ename
pro p
MP LS
CON V
Ġcomp ress
MO V
Ġcomm it
ind er
ĠYY STACK
Ġcopy len
PRO FILE
SP LIT
Ġup b
enc rypt
Ġrequest ed
Ġauth ctxt
Ġlevel no
QU ANT
Ġstring s
CS UM
Ġchm hs
Inter lace
MI X
wh ile
ĠONIG ERR
Ġpic ture
FAC TOR
Ġmedi afp
Di gest
ĠINTER CEPT
udp lite
termin ate
sma ll
Ġmal formed
EXPE CTED
Ġmult s
icename s
4 7
C r
C ustom
F Y
J oin
L AR
P S
c g
c lean
j ect
o unt
Ġc irc
de struct
Ġb dev
al f
Ġd oc
Ġv ol
Ġv endor
Ġg int
Ġa goo
UL ONG
ĠS OF
int err
Ġcon v
Ġde compile
RE JECT
Ġk ill
Ġma y
ĠT OK
ĠD is
ERROR S
ĠW ITH
Ġmem ory
Ġpro blem
Ġwh ite
ab b
ĠOP T
mv pred
VER BO
Ġauth pending
back up
ng br
BO DY
ĠPR Id
stack size
CONTEXT S
ĠUN DEFINED
GO TI
app lication
ĠRD COST
ĠSK IP
Dis k
Ġattribute s
depend ent
dim ension
privile ge
VERBO SE
> ?
I I
I MAGE
N V
R aw
S c
S REG
V IR
p data
p adding
t g
u ji
Ġp mc
de red
ma ch
ma inder
Ġb f
Ġf our
Ġn mi
Ġn fp
me map
Ġo fp
Ġd ls
Ġr pl
mp eg
Ġa io
ER IC
str buf
pa wn
Ġerr Exit
addr s
Ġdata ofs
Ġbuf s
ĠL ONG
ĠL CPOPT
Ġnum resolution
SS H
CO OK
ĠV IR
EX PORT
ac ce
Ġfile gen
SU RE
temp late
Ġdi rname
US B
inc r
ENT ITY
Ġms q
COMP RESSION
COM MENT
tag s
ls r
ore lse
WA V
Ġns v
targ s
cl k
Ġload err
ĠRec Type
multi ple
INTER VAL
CRE AT
nego ti
ĠRD S
Ġrpm fi
ĠGP LOT
oper ations
SERV ICE
oft ware
Ġnex thdr
ĠMcps Indication
Ġoob i
Ġanc illary
Ġquan ts
Ġfour cc
memap pend
4 1
C MSG
D el
E OS
H ello
I CT
V IDEO
W ID
X Y
g ate
s ctp
w e
Ġi pipe
Ġs pi
Ġp ref
Ġn tl
ti st
to pt
Ġd ts
Ġd ont
Ġm di
fo reach
Ġ2 04
str to
Ġx x
ĠP C
ĠP ush
ĠC OM
SE D
Ġnum cols
Ġkey s
di rection
12 3
\' %
dis c
Ġenv iron
De fault
SY STEM
IR Q
Ġmm io
ass ign
cap s
ĠLIB C
auto free
AK E
AK MP
Bit Count
Ġsele cted
Ġgener ic
8 5
D SD
G L
P CI
R ATE
R aster
S w
V ORBIS
W ARD
i Debug
k er
u table
Ġs sn
in i
Ġp Read
tr ib
de liver
Ġre fs
ĠN T
ĠN OB
Ġm anager
ro ugh
ag ios
Ġh ere
Ġk ind
ĠC MY
ri es
as oc
Ġj ournal
ĠB its
ĠG RU
Ġyy token
Ġend str
Ġtmp buf
Ġti o
reg ion
ĠU V
TI O
ĠPy Type
ot tom
Quantum Info
Ġsw ork
ec ted
Ġstream s
ca use
qui res
desc riptions
ĠRE DIS
inc rement
ll x
READ Y
SY M
Ġfail ure
Ġnode size
trans form
br idge
Ġpk iDebug
ĠEx it
CONST RA
exp n
IDE NT
PAGE S
ĠrfbClient Log
ĠSW AP
ĠNFS PROC
snd buf
medi a
St mt
lex er
DISC ARD
authentic ation
ĠReadDCM Byte
ĠCMY K
ĠGRU B
6 1
6 8
: :
K ILL
M ac
R S
S F
W BI
g us
h l
j ump
r pc
u d
Ġc len
Ġp m
Ġp ower
Ġre pr
te xp
Ġu long
Ġl y
Ġt f
Ġt comp
Ġstr icmp
Ġh list
end ata
ĠP OLL
con stra
ĠD CB
ĠD RM
bo gus
ub key
Ġz Name
Ġmax n
ĠK DC
AP IC
ĠAV Frame
NE GOTI
Ġstart time
Ġio cp
Pro tocol
Ġevent s
tx fm
igh texp
SER VE
run time
ĠEN ABLED
ĠST B
leg ate
Imp ort
Ġus r
Packet s
PM SI
IV ED
ĠEx pr
short cut
Ġcontrol s
ĠNE W
LIT ERAL
>-- <
force d
38 4
Ġmon o
JO IN
ĠAppendImage ToList
ĠMem ory
Us age
% '
6 9
8 1
B A
D TLS
F rac
I RED
J UNIPER
U SH
b utton
c raw
k ip
m an
p al
t v
u ch
x ec
y k
Ġi w
Ġi uc
Ġc ips
Ġp wr
Ġp Expr
Ġf rb
st o
Ġin formation
Ġin tel
Ġu nderflow
Ġd val
Ġr ctx
Ġr andom
lo ur
Ġg if
Ġt xc
Ġm sc
un ce
ER TI
ĠM edia
ĠP CAP
Ġw data
ĠI D
ĠT ASK
Ġ' %'
Ġyy stacksize
ĠD LT
ne st
Ġtmp stream
Ġcm yk
bo ard
Ġfile hdr
Ġset ting
lu a
Ġprint line
ĠENO SPC
IF S
IF LIB
Ġreq Ptr
Ġad j
Con v
width expn
ĠJ P
base d
ĠIS AKMP
Ġsi bling
og le
Ġtx req
tch n
tx options
Ġhead index
pid file
Ġsa w
ĠNG IFLIB
Ġexp and
Se q
Ġlua L
Ġneed Save
Ġproc Name
SW AP
Is NotSupported
Ġ^ =
ĠData Offset
REAL TIME
ĠFOR C
Ġoc fs
Generic New
STY LE
psn r
COOK IE
ightexp n
ĠMemory Info
Ġiuc v
Ġcips o
Ġfrb uff
D o
G N
P AS
S ND
T er
T ry
W W
b ility
c ycle
f w
f utex
g uest
j son
l r
p x
p an
s leep
Ġ ALLOC
Ġs idx
re pr
re connect
Ġc rc
Ġp it
Ġp data
Ġp pp
tr im
Ġf r
ar ith
le b
le ction
Ġo lsr
len o
ro ll
Ġ2 7
AT IO
ĠP ATH
Ġ4 8
ir cu
ĠF P
Ġnew pos
Ġct l
In teger
length s
ou se
ext ents
Ġline s
Ġun its
DI SK
SET T
sn printf
Con trol
Sh ift
Ġsession id
next c
DO MAIN
WR ONG
Ġdis p
Ġcheck sum
Ġpri mary
ĠSE G
ĠFLAG S
consu me
Bits PerSample
scr atch
65 02
mon itor
Cur rent
PICT URE
Pri or
Loc al
ĠAT M
ĠGetQuantum Range
ĠCo mp
DENO M
ĠLIN UX
Ip Addr
ircu it
+ "
+ %
A ll
G ra
G ray
H ost
M atch
P ADATA
R FB
S pec
S ocket
U sing
V ID
g ine
n ed
s en
t fm
w ill
x D
Ġi tl
in line
Ġp list
Ġin v
Ġin clude
ar ity
Ġu fs
Ġu mask
nd ent
Ġv i
Ġv len
Ġv get
un ref
ch ip
ĠS ER
int f
ĠM AKE
str casecmp
pa s
Ġx s
ĠR List
Ġw ip
ĠI nter
ĠI ndent
ree mpt
as printf
Ġen coded
Ġst y
sc ri
mb mode
ĠD st
ĠD im
par ing
EN CRYPT
ĠH F
AS CI
Ġun ifor
mi ted
TH DR
Ġmi DOUBLE
Ġmi SINGLE
nc y
Ġ5 00
Ġpath len
Ġth iss
IC IT
Ġuser faultfd
mg mt
TO METRIC
DATA FORMAT
ay load
Ġtag s
MODE S
Ġmp d
Ġseg s
ĠIn fo
mul ticast
Ġdecode d
ĠSync Image
enti ties
HO TOMETRIC
DIS ABLED
SIGN ATURE
Ġtim ing
Ġmx INT
Ġmx UINT
Ġon ig
ĠCR YPT
ĠData Type
dy namic
Ġzrtp Packet
Ġtk a
ĠDC CP
Ġthresh old
lev ision
ĠSCSI Disk
ĠReadBlobFloat sXXX
Ġdim ensions
wake up
Ġsad b
Ġpan id
Ġvirt io
ĠReadBlobDouble sXXX
ATT ACH
PGM CC
Ġdyn str
Ġyyl val
Ġlif e
Ġoverr ide
interr up
Ġpmc raid
Ġntl m
ĠLIBC ERROR
RFB Server
Ġwip hy
ĠDim Flag
ASCI I
Ġunifor ms
( )"
F H
O LE
V olume
W P
W indow
] :<
h u
m ts
n m
o paque
s patial
w a
x b
x mit
{ '
re quires
in s
Ġf ol
ad ap
Ġo ci
Ġg ld
IN COMPLETE
Ġcon su
ĠM PI
Ġx W
ĠR SA
DE LAY
ĠT F
ĠT EST
as ci
up licate
Ġ' {'
no tation
Ġid en
Ġpi xt
ĠH A
res tart
ext end
Ġget frag
Ġun frag
Ġfa bs
ĠGet Virtual
ĠGet StringInfo
Ġ5 0
comp onent
To tal
Ġrows perstrip
und ant
De st
Ġbo ost
Ġfs notify
mount s
ĠScale Any
ly ph
Ġ"/ %
uc cess
cons ole
SIGN AL
Ġwait ing
wrap per
module s
ĠStart Index
need s
Hash Table
ification s
THRESH OLD
ĠLSB Endian
ĠmChunk Size
ARR VAL
WID TH
Ġfol low
asci i
ĠScaleAny ToQuantum
+ <
- "
1 000
> :%
A ssign
D SA
F ound
P ix
P IO
T STAMP
V NC
W B
W ORK
a ac
c lamp
d val
e of
j ected
w sk
w ant
Ġs id
Ġc seq
in to
in base
in struction
Ġp ch
Ġp fn
Ġp lain
Ġp Prior
ma ries
Ġf its
Ġu ff
Ġl un
Ġe vas
Ġr code
Ġr table
Ġa flag
Ġh eap
ĠS db
ĠS wap
Ġde x
str cat
AL E
Ġsta tist
ĠI B
ĠT ype
Ġne ar
Ġ4 4
ĠF inish
lock s
EN SURE
ĠRead From
Ġcur win
ac y
Ġmax h
ĠO paque
av p
av ing
und le
Ġtp m
Ġenc rypted
PRO G
cnt l
Ġdec orator
Ġyyv s
Ġtc lass
Ġsign ific
Ġcheck H
work ers
Ġclass ifications
Ġut c
Ġorig inal
ĠLIB SSH
wh ite
Ġzip file
Ġcallback s
inv arg
wq h
patch ed
ĠPK T
ĠszLine Conv
Ġpoint size
Bool s
Ġef x
Ġpkto ptions
anted Size
ĠObject Size
RTree Data
ĠxW antedSize
Ġstatist ic
Ġsignific ant
@ '
A g
D own
F i
G RAY
M ake
N B
N AK
O ID
P B
P r
a rt
e pc
re size
se ct
Ġre name
Ġf req
Ġf tell
st rerror
Ġn Encodings
ar n
le pt
ti g
me ch
Ġo ssl
Ġv l
Ġv samp
ag ent
Ġh y
Ġh samp
int errupt
Ġch g
Ġde ca
Ġde stroy
val u
Ġy start
Ġx start
ĠT LS
as f
Ġ' @'
sta g
Ġtr un
red undant
Ġcur ve
Pixel Info
hdr len
Ġsc at
ING S
Ġcomp act
Ġnet link
IC B
ĠENO SYS
IS R
Ġinter nal
da emon
Ġvar iable
Ġcan on
.. .
DEFAULT S
Ġsu bject
mu x
BE GIN
77 2
Ġband no
exp licit
RUN N
sym link
tiv ity
Ġmacro block
Unsigned Long
ĠVIR TIO
Ġdeca y
8 4
; \\
A v
A cc
D ir
E nter
E HT
L Z
M alloc
M OPT
P TION
Q PRS
a ded
d ue
e scape
h fs
m id
n z
p itch
Ġ DEC
Ġs uffix
Ġs patial
re new
Ġp ers
Ġp frag
Ġ0 64
Ġn map
ad apter
Ġd l
Ġr fc
Ġg st
Ġa ac
un ic
ig ger
li mited
ĠE AP
Ġy step
Ġx step
ĠP NG
ĠC TM
ul ation
Ġma jor
as c
Ġj nx
Ġ4 00
loc ale
sc all
ĠD ocument
Ġ8 0
PE ER
ĠL QPRS
Ġnum Samples
ID I
EN UM
ref count
row size
qu ot
BIT MAP
Ġpo ssible
Ch at
Ġcmd line
comp at
File s
ĠRE X
GET UINT
ĠJ UNIPER
Ġfd s
ĠIP OPT
GP F
Ġbl ack
Ġauth key
CUR RENT
Ġ9 6
Ġpart ial
wr ong
Ġap ply
rep lay
MB C
conv olve
Ġmeta offsets
cost s
Ġopen test
ĠUN USED
Text Chat
ĠPRI x
LAY ER
Ġshow spi
ĠTC G
Open AL
neg ative
hook s
Ġstrto ul
ĠStart WPG
ADDRESS ING
TIFF free
ĠInput Length
ASS ERT
Bitmap Type
On ly
mis match
ĠUp Right
ĠALT REF
ĠLowLeft X
Ġed ge
Ġsty le
interrup tible
Ġuff dio
0 10
4 01
8 0000000
A FI
F M
H U
I BU
J A
P rec
R SP
R ATIO
S LA
V ideo
a time
c av
i pe
o o
r nd
x E
Ġi loc
Ġi Src
re l
Ġc am
Ġc lip
Ġp lot
Ġre m
Ġb id
Ġb printf
Ġf scanf
te red
te ction
Ġin struction
ar b
Ġu cs
ti mal
Ġl ing
Ġl ive
Ġd ensity
ĠN AL
Ġreturn s
Ġstr atum
IN SERT
Ġa gf
Ġco st
ST H
ĠT ile
Ġne eded
Ġex thdrlen
sh oot
EN CAP
red irect
SIZE S
Ġpro b
Ġext ended
IC AL
Ġlog it
EXT END
Ġinter val
ATTR IBU
iv en
request ed
Ġmv sad
Me ta
Ġchannel p
uv offset
Ġadd rt
Ġut f
SA FI
Ġalloc len
Ġff lush
os en
Ġge ta
track s
Ġbi BitCount
MI ME
Ġce il
wh en
Ġcblk no
ĠSY STEM
Desc riptor
Ġstrto l
ROUT ING
>@ <
ĠDO UBLE
Ġplay list
INITIALIZE D
cav lc
ATTRIBU TE
B Y
E QUAL
F ACE
H Y
M ATLAB
N Z
O ver
P IN
P SD
R FC
S OL
T ARGET
[ ^
b dev
d ct
d ay
f close
i size
k vno
q emu
x A
y offset
Ġs at
Ġs rb
Ġc n
or g
Ġb b
Ġb ench
Ġn or
ar r
Ġv C
ĠN PP
Ġt w
un share
Ġh old
ĠS rc
ĠE nc
ĠE BAD
ĠE INTR
Ġchar len
ul ar
ĠI F
if index
if ace
Ġex ist
ĠB egin
ĠB ZRTP
ĠF A
ĠL M
ĠL Z
par allel
ET H
reg no
FI O
TI C
Ġpro jected
Ex p
CON VERT
Ġsrc u
Ġpc u
Ġgf x
Re turn
Re maining
mem slots
Ġac cept
Ġcode book
Ġcode books
ĠQ IB
Ġsample Table
pred ictor
su ite
ĠAcquire String
Ġper cpu
pu blic
with out
Ġrate s
Ġmatch es
host name
Message s
SOFT WARE
alt setting
Ġnl attr
AB LI
AIN ER
Def ined
pare ncy
Signed Short
lib ssh
overflow s
rq st
second s
Ġadjust ment
Ġphase Frac
EST ABLI
Back ground
EXCE PTION
Param s
Ġemul ate
infl ight
FET CHED
Conne ction
sur face
Hello Message
NEGOTI ATE
ĠReadFrom RFBServer
Ġgeta string
3 7
3 9
4 9
B FD
C CM
M IC
P REFER
d ash
e at
p ptr
t wo
t cd
Ġi block
Ġs ptr
Ġc cp
Ġc ycle
de ad
ad min
Ġl r
Ġl ic
Ġl ci
Ġv qp
Ġk lass
str ncasecmp
ĠP CI
ĠP lane
ĠC lass
Ġw atch
DE LI
Ġne g
Ġne go
il t
ĠA PP
Ġj mp
and alone
ĠB lend
ME N
ĠND PI
Ġend p
ĠD TK
Ġnew dentry
par sing
UN EXPECTED
Ġpro cessed
ĠH OST
Ġal igned
Ġcmd idx
tra verse
MO RE
ĠGet QuantumPixels
Ġreq ctx
ĠYY MARKER
Ġdi ct
MS R
Ġcl r
Un recognized
pack s
Set ting
04 2
Ġpix map
SUB TYPE
mark er
MENT S
Ġexec utable
802 1
Ġpre pare
Ġcd x
Ġpl gctx
Ġpack ed
ĠBT A
cont inue
Ġrece ive
ĠRA nal
Reply Data
ĠLen gth
DELE TE
Join Accept
constra int
ĠBlend PixelTrait
> >=<
B M
B RO
H I
H ITE
I rp
L VAL
N SV
T AIL
b n
c lip
g arp
i if
n aux
s mtp
Ġs info
Ġs parse
Ġc wd
ta ttr
tr usted
Ġb ro
Ġb mc
ge ometry
Ġf sc
Ġf wn
Ġu sg
Ġu limit
Ġl ha
Ġv ips
Ġm ss
ro ps
err al
Ġh state
et c
ed i
ĠE FFECT
RE CE
Ġk time
ns ert
ĠR eg
ĠI nsert
ĠT PACKET
ERR BUF
OP ER
ver b
ĠD uplicate
Ġnew ext
ne p
ex pect
UN DEF
Ġnum Channels
SS ING
ĠV FIO
ĠU EV
sp in
Ġ"< /
Ġis um
Ġun def
Ġext d
Co mple
NE ED
VP LS
HDR LEN
LAB UNICAST
PP C
Ġrd cost
Ġss ap
Ġusb interface
ĠIS OFS
Get R
priv s
env s
ĠSetImage Colorspace
Ġmd ump
Ġimp ort
ĠPR INT
ĠMY IOC
ĠUN SERIALIZE
sup ports
usb midi
auto move
MI SSING
FL USH
Ġnfs err
POL L
Code c
Ġudp hdr
YUV A
Ac cess
Ġforce d
ĠSH A
cor rection
vari able
TU AL
SPA WN
ĠBP LIST
ĠSy stem
RUNN ING
unic ast
ESTABLI SHED
Ġfsc rypt
Ġfwn et
ĠDuplicate Blob
& '
6 3
7 33
A re
C AN
H andler
d rops
g x
k ill
t tp
Ġ INET
Ġi dr
Ġs tu
Ġs chema
Ġp ReplyData
on o
Ġ0 77
Ġre size
al en
Ġe fe
Ġv st
Ġr iff
Ġr layer
Ġstr m
ch k
Ġco inbase
ed s
Ġps nr
ĠE G
ĠM K
Ġ2 1
Ġk ern
Ġy bf
ĠP PP
ĠC ur
ĠR AS
Ġw arn
Ġne are
ĠA CP
Ġ' &'
at form
LO AT
map ped
ĠF LOAT
sta tic
per s
ĠD FF
file system
Ġnew ex
num er
qu ick
Ġpro be
Ġreg ion
Type s
Ġpc d
Ġmb d
Ġnet snmp
rec s
attr s
vp ow
ĠZ ER
part ial
Ġsn pa
rp s
Ġtrue size
ly rno
close d
Ġpix a
FOR CE
Ġper iod
Ġsg nd
prev ious
Ġiter ator
mpt ctl
only args
Ġscan f
Ġchan Mask
Ġback up
ĠSE CONDARY
exp and
my sql
record s
irm ware
ĠCh annel
trunc ated
scal ed
**** ****
ARE ST
ĠER E
POW ER
Ġasc ii
Ġ655 36
bid den
Ġdead line
LAR GE
Ġly rno
SLA VE
A ES
C RED
G UEST
J UMP
O per
O SP
P re
P ATCH
T yp
U se
V ia
W h
_ '
d gram
f re
f pu
h ard
k i
k free
n link
p mgl
r v
r mem
s ame
s ched
Ġi Db
Ġs Flash
in coming
Ġp vc
Ġb undle
Ġf pi
Ġf test
Ġf lv
ar f
me t
th r
Ġt sc
Ġt tl
Ġt stamp
co ff
Ġx ref
ĠC IFS
dec i
as y
Ġ' _'
Ġj h
Ġq edi
Ġfor ward
sk cipher
ĠG OLDEN
Ġyy text
Ġme mp
SI DE
ver age
Ġ3 5
NO FS
AD V
ter ial
red ictor
Ġta c
Ġz ap
Ġwh at
Ġget pid
CON S
SL C
Ġrow size
TRAC K
ample s
dis connect
ec tive
ec tid
unlock ed
ĠRE NAME
Ġpos ision
ĠJ peg
Sh utdown
Ġrt m
ll cp
Ġmp i
Ġup sg
au til
Ġsi ge
Ġauth entic
Ġfrag s
Ġim buf
ĠIn dex
Ġpeer Packets
Ġlay no
NOT FOUND
DEC L
rcv buf
Ġge tuid
RES OL
Se ssion
Ġpass wd
ĠPG TYPES
SEC COMP
Ġpri m
Ġrep lace
partition ing
ĠSE Q
Ġgs f
Ġgs asl
ĠNE ED
NEW LINE
lp f
Ġfix up
Cur sor
Ġicon Info
LEG AL
ii h
Ġmpt ctl
ELE M
ĠSV M
cal led
CLR SPC
ceil div
PAS STH
valu ate
ĠNPP V
autil us
, \\"
D ate
D ist
M ULT
P W
P hy
T REE
c blk
c ustom
e pt
f name
h v
l IO
n od
u mask
z a
re name
ma cs
Ġre main
Ġb ottom
Ġf addr
Ġn one
le ted
Ġl is
Ġe length
Ġe flags
Ġo paque
nd ig
Ġv im
un parse
ro ck
ss i
ss p
Ġh x
int ent
ĠM at
OR ITY
Ġx p
ĠC S
Ġw th
LE D
and s
no tification
ort er
ĠG IF
ip c
Ġen abled
loc ated
sh ot
In c
CK ET
num cmpts
Ġtr ail
ĠV px
Ġal u
Ġpr che
Ġpr ph
DI VP
LOG PIO
be en
ĠGet Image
UR I
Ġdi es
ĠDe vice
ob ig
ĠQ U
ĠReadBlobLSB SignedLong
Ġdis connect
Ġnr bufs
Ġsd ma
Ġblk bits
fl ash
xFF FFFF
Ġnfs d
GO OD
Ġwork er
Ġnh ml
Desc ription
Could n
Gener al
Ġqt tag
Lay out
Rec ord
ĠStringTo UnsignedLong
ĠPer lIO
ĠAdd ress
ĠLINE NO
PROG RESS
Ġauthentic ated
Ġlis targs
ndig is
DIVP OW
0 9
4 15
7 55
8 35
> +<
B u
D L
E lement
K RB
L ittle
O WN
S can
S CHED
W r
Y ou
] ,<
` %
b io
c ropping
h ops
i mm
m sb
v q
w s
w idget
y ou
Ġs ma
Ġs ft
Ġs alt
Ġs cope
an out
Ġc black
Ġp arg
tr ow
de compress
Ġre scale
Ġn z
Ġin row
Ġv na
Ġr ack
id ata
Ġa fi
un ity
Ġco mb
Ġh Stmt
ing Sound
dr a
ĠM T
ĠM CAST
32 1
str d
do ts
Ġx fer
ĠC AF
LE FT
ĠT AIL
la ble
ra ction
Ġtmp out
Ġop timal
Ġti dx
EX ACT
Ġcur frame
Ġfile block
DR IVE
log ger
IL ITY
Ġgf c
Re ference
dir s
char set
Ġold sk
Ġdi alog
rd ma
object s
PRO M
Un icode
ĠSetPixel Via
Get File
ial ect
PA RENT
delta s
ĠST REAM
COM MIT
Ġlay out
ĠpS amples
CR C
Ġ"- "
Ġpg d
ĠMax HashTable
Ġhw c
DIS SECTOR
Ġds ap
initial iz
MOD ULE
Ġprc widthexpn
EM U
Ġpred ict
ĠosStr casecmp
Ġsha red
pg off
tiv ate
LOOP BACK
ĠNo Memory
ĠRPM ERR
dim ensions
Ġou trow
float ing
UFF D
%*[%, ]%
QUANT UM
MIX ED
Ġxs lt
GetR ing
Ġneare x
Ġprche ightexpn
ĠSetPixelVia PixelInfo
- >
3 00
6 17
9 15
C LOCK
G F
T T
a tible
b as
d ts
f x
h ole
k p
p ref
p md
r sa
u uid
x ar
Ġi Col
Ġs te
Ġs rose
re trans
Ġp E
or rect
Ġl anguage
Ġr oll
ĠN I
ĠN R
Ġg i
Ġm Channel
un def
ag ain
fo ld
ĠP rag
ĠT L
ĠT SK
ol or
ĠG if
la p
Ġend points
CH ILD
mm co
ice s
Ġsb info
Ġfi bh
Re v
path name
File Header
bs olute
Ġad is
Con tig
FAULT S
ĠJ S
ĠDe bug
ĠX ATTR
Ġenc len
PAR TIAL
Ġprev hdr
pri maries
SHA RE
HO OK
dbg msg
Ġband s
xFF FF
comple tion
ĠAL OG
21 12
PH Y
Ġsupported Messages
medi ate
AY ER
ĠRC V
igno red
PEND ING
HARD WARE
SETT INGS
sen si
Fi lename
Ġ064 4
RECE IVED
pers istent
ĠERE START
OSP F
* '
@ %
A ppend
C lear
C ASE
I FI
I VER
I llegal
P lain
R F
S Q
S ector
T EN
b asic
e h
e ther
i mple
p ol
t k
u er
Ġs uccess
Ġp type
Ġf ru
Ġf gets
Ġn ic
Ġn autilus
Ġu a
Ġu h
Ġu r
Ġl ut
Ġe c
Ġo pacity
Ġv addr
Ġr ix
lo sing
th op
Ġm ip
fo pen
Ġch osen
Ġps m
ĠE rror
Ġgo ogle
ST YPE
Ġx kb
ĠP rint
Ġma j
Ġma coff
ĠI d
Ġne ighbor
Ġ' *'
Ġj bd
at t
Ġyy len
ĠD R
ĠD UMP
ĠD ialect
Ġnew sp
oc i
ĠL OR
ĠL DP
try ing
Ġto s
ap ply
Ġmem slots
po t
po ch
red uce
ĠReadBlob Stream
slice s
line ar
DR IVER
Ġfa st
ĠAV MEDIA
Ġread Buffer
dis covery
NE WN
db us
ind ent
Ġlog ger
CODE S
Ġsy cc
ĠDe code
Ġenc rypt
ĠZ ONE
SC ALL
enc ap
enc part
Ġbl en
back log
skip ping
Ġtrans parency
CONT ENT
Ġextra args
sa o
Ġpg pio
76 54
Ġqueue d
command s
Al go
Ġev tchn
Inter val
Ġbox info
fix up
Ġhid g
Ġproc fd
ĠFF MIN
Code Point
Ġlxc path
Ġprog len
Ġrota te
Ġdup rintf
bp f
ĠCh eck
ĠParse Command
ĠUS AGE
Ġsele ctor
ĠVer def
rout er
BB BB
Ġalen len
ROUT E
Ġrece ived
CORRUPT ED
tun nel
INST ANCE
NVM Read
Ġrf comm
ĠNS LOG
Rece ived
ĠOB JECT
ĠOnig CodePoint
Ġconfirm Plain
PAN IC
>? )"
VIR TUAL
craw ler
ĠParseCommand Option
ĠconfirmPlain Message
D atum
D ict
G IF
L ER
M R
R AD
U Int
Z ero
f len
g g
h p
j id
m q
m ig
r sh
Ġ INFO
Ġs data
Ġs peed
er red
tr ices
Ġb wrap
Ġf in
Ġf enc
Ġf putc
st k
Ġ" ,"
Ġn dp
Ġn func
me md
Ġl dp
Ġv cc
Ġt re
Ġt vp
Ġt fr
Ġint ptr
ch at
Ġsize d
set s
RE EN
str n
val s
ĠC P
ĠR LE
ĠR ATE
ĠR STRING
DE LEG
Ġne st
AR P
ĠF PM
Ġcol on
LA RE
Ġtmp name
ĠMagick Status
TI M
Ġopt ind
time spec
DI MEN
Ġcomp onents
Ġth umb
sock addr
context s
De pth
Ġattr len
Ġkrb tgt
ĠX EN
AM AC
ule b
GE O
Ġdest ination
ĠMAX PATH
Ġgroup s
FOR K
handle d
box es
ĠIn herit
token s
own ed
Ġlink addr
ĠBU ILD
dig is
LIST EN
conf irm
IE W
Ġpad ata
Ġprc lyrno
Ġwr itten
DIRECT ORY
ĠCUR LE
Ġpoint s
secret key
PARAMETER S
GI I
Qu ery
REQU IRED
EXTEN SION
Ġthiss ad
ĠGetVirtual Pixels
ĠOpaque Alpha
ĠDEC LARE
ĠLOR AMAC
ĠMagickStatus Type
DIMEN SION
ĠInherit Exception
! '
4 6
B H
C ellType
D FF
H ID
I EEE
R el
S ingle
c ryp
d eno
g pio
n mississippi
q x
t mississippi
u u
z y
Ġs de
Ġs dev
Ġc od
Ġc type
Ġp F
Ġp ck
Ġp do
Ġp itch
Ġp fc
se ed
Ġb cache
Ġb Interface
Ġb nep
al Ma
te ts
ad vert
me mb
Ġl ru
Ġo f
lo aded
id entity
ce d
Ġa x
Ġh ome
ĠS END
Ġch k
Ġy p
ĠP T
ĠP HOTOMETRIC
ĠT ARGET
ĠA IP
Ġ' !'
at er
Ġq false
ĠB G
ol lo
la ck
ĠF unction
ra ck
NO MEM
Ġdev name
CH R
tus b
age ment
Ġsh ell
Ġ"% "
MP Packet
ĠReadBlob SignedLong
Ġpro xy
Ġwh ich
ĠH V
ĠH FS
Ġsc al
Ġsrc rt
Ġfi b
IL LEGAL
UT LS
ĠY AM
min al
TE K
STR VAL
ĠX R
PRO B
cs r
Un it
Ġmp z
hash table
ian t
Ġor gid
ated Irp
PA IR
Ġrec ipients
PRE DICTION
Ġadd ip
Ġapp le
cat en
Ġpk alg
Ġ"[ \\\\
ĠGetPixel Red
RES SED
Ġan on
DEF INE
REP Z
Ġblk no
ĠLIB X
Ġtrack ID
Ġbr anch
26 3
Ġte levision
gr id
FLO OR
std in
dy ld
ĠCh unk
Ġstrip size
COD ER
Part ition
Ġover flow
Multi dimension
quantiz er
CEIL DIV
Ġpseudo Header
noti fier
WRIT TEN
itu de
Ġdig it
:/ /"
Ġlibc notify
ĠAss oci
deliver y
ĠExit Loop
ĠComp ression
Ġlife time
ĠSystem Buffer
Are NotSupported
PASSTH RU
trices AreNotSupported
ĠRLE Compression
Ġcod sty
alMa tricesAreNotSupported
ĠAIP TEK
Multidimension alMatricesAreNotSupported
ĠAssoci atedIrp
4 2
B AR
C AF
D ump
H INT
L M
P ayload
T OP
X IO
] '
a tile
a tio
b atch
b ulk
e go
i tive
k vm
n fs
r idge
s as
s mb
w p
y r
| '
Ġ \\\
Ġi attr
in bound
Ġp T
Ġp es
Ġf put
Ġf reg
al iases
Ġo ui
Ġr lc
mp p
Ġt key
un initialized
ro ss
Ġh store
ĠS peed
ĠP SR
ĠP os
DE CODER
INT ERR
ĠT IO
Ġ' ]'
Ġ' |'
nt Frame
OP E
ME TRY
Ġst andalone
WE L
SI M
ra ise
AD CAST
Ġto o
In to
ĠW S
TI ntFrame
ac count
ĠH ttp
res ses
Type NotSupported
Ġpar ity
Ch ange
Ġcomp ile
be ta
ĠO UT
Co okie
ĠThrow Binary
Ġac count
Ġlog file
To Chunk
char acter
av a
ph ar
pos itive
sub st
sub tree
inc orrect
ition al
Ġsub t
KEY RING
Comp onent
Ġskip pable
Ġbin ary
ĠEN XIO
IR K
LOC ATION
Ġalloc ation
process ing
EC C
Ġan notation
Ġar f
interface s
RP C
SEC URE
Ġxml Char
auto ptr
ALIGN MENT
tern ate
DB L
INTER FACE
Ġstack p
ĠSTR ING
Config uration
Ġlib ssh
Ġpoc struct
trunc ate
oper ation
ĠDo GetFile
rs v
TIFF malloc
Ġ"\\" "
ĠpW TIntFrame
Pri ority
life time
quantiz e
nf len
Ġdr v
Ġpam h
subo bj
ĠIW L
Ġ204 8
strto ul
OLE AN
ĠAPP L
Comple x
memd up
GEO METRY
ĠThrowBinary Exception
( ),<
8 00
> *
B ig
C AT
D WORD
D GRAM
H MAC
L ow
N by
Q WORD
R W
T TL
c ircuit
g uint
n at
s mp
s ort
s Per
t bl
u char
v irt
w ind
w eb
x fs
Ġi tr
Ġi rd
Ġi cb
an za
Ġp D
Ġp fd
Ġp pos
de leg
ma te
Ġre st
Ġre do
Ġre direct
Ġb rd
Ġf getc
st e
Ġin ame
Ġin complete
ar ry
Ġu cmd
Ġ1 02
Ġl sa
Ġe uid
Ġe strndup
Ġv is
Ġv sub
Ġr key
ff ine
Ġt qx
Ġm ms
Ġa mount
ro ba
ss im
ch ro
Ġh ci
ĠS LAB
Ġde tail
Ġps kb
ĠE CONN
ĠE CRYPT
pa bility
AL OG
AT IVE
ĠP LANE
Ġw re
DE AD
Ġma il
ri table
ĠI DR
as pect
ĠA A
at tached
ĠB OD
Ġst NVMRead
SI C
SI ST
PE CT
Ġtmp dir
Ġnum result
num Coeffs
tum s
ĠRead DC
count ers
value len
ac s
Ġwh en
AS PECT
time base
ED X
\\" :
Ġfi fo
Ġmi me
Ġth r
Ġdi rent
sub tlv
Ġenc ap
inc l
PAR ITY
Ġrt l
net bk
da tums
pack age
mbs Nby
scan xar
igh and
Ġseg mentation
Ġhash bin
Ġsq r
message s
>[ |
si mple
step s
chr on
mov ed
Ġmac Msg
Ġchan acs
ĠRT A
Ġaf ter
ĠCon trib
ĠNE B
Ġprec no
Ġserial ize
Ac tive
SM M
snap shot
yc lic
attribute s
Ġhand ler
Ġrmt valuelen
ipi ent
abort ing
QUAL ITY
ĠInput Buffer
alD river
Ġfm top
tstamp s
IFL G
Ġquir k
Ġrmtblk no
PRI ORITY
Ġnumresolution s
acce l
ĠBits PerSample
Ġthreshold s
ĠTile Info
Ġcycle s
caten ate
ĠECRYPT FS
ĠBOD Y
ĠContrib Row
1 0000
4 5
= \\
= \\"%
C ERTI
I ter
K VP
N ull
O rder
W ork
Z LIB
o ther
p alette
v ld
z e
Ġi conv
Ġs rr
Ġs ense
re mount
Ġp alloc
de quant
or ary
Ġf hdr
Ġ" ..."
Ġn colors
Ġin cr
Ġv sk
Ġt link
Ġm q
un used
un aligned
Ġh sub
set msg
RE START
pa y
ĠR R
ĠR ep
Ġw ee
ĠI map
ĠT OP
up le
ĠA C
ĠB OT
ol ation
SI MPLE
Ġse ed
ĠW IN
SS P
Ġtr ap
ĠMagick Min
ĠH U
res ume
ĠAV Filter
ĠAV Codec
write l
max imum
LS M
MO DI
NE EDED
lu de
Ġstart Address
ĠENO KEY
IF DIR
MS tream
ĠRE LAY
off s
Ġpos Y
pc ie
cs i
Ġfp m
Ġsub tree
Ġmod ified
Ġrequest vb
ĠQ u
null s
DO M
Ġms pack
cb f
COMP RESSED
Pa ss
ĠTIFF FileName
flow info
ĠpS orter
SO FA
Ġ"[ %
19 2
Ġar pt
ĠMY F
ĠMY SOFA
ĠWavpack Big
Ġva pic
Ġ"( %
Mask ed
Ġbr idge
ĠRe size
UNI X
ĠCon text
TL SEXT
OC ATION
ĠDC MStream
Ġnump asses
termin al
arp ness
ĠNP NV
TEMP OR
tick s
SAMPLE S
Ġsched ule
FIC ATE
FIC ATION
Ġrad ix
ĠRunCount Masked
SYM LINK
Ġunderflow s
wa iter
ĠReg ister
ĠChannel Mask
ĠPrag Typ
Ġicb Tag
CERTI FICATE
Ġwee chat
ĠWavpackBig EndianToNative
ĠDCMStream Info
$ "
6 2
9 3
A b
A t
D T
H UP
I MAX
P AL
R R
R et
S top
S uite
X REG
g as
h z
h ist
h oc
h au
k le
l un
s vm
s oftware
Ġi pi
Ġi count
Ġi Left
Ġi msx
Ġs name
Ġs fe
se i
de queue
on l
Ġb Num
Ġb aud
Ġ" ^
Ġ" ."
Ġn c
Ġu arg
ug ht
Ġe type
Ġo mode
to ff
Ġr ng
Ġr lp
id entities
Ġg row
Ġg req
Ġt size
Ġt xp
Ġstr cat
Ġm an
Ġa tusb
el ine
Ġh ot
ĠS IOC
Ġde p
ĠE MUL
ĠM EM
Ġx min
ĠP ID
ĠP IX
no intr
Ġout f
Ġex port
ĠG ray
ĠG SASL
Ġyy size
ĠF AC
sta ge
Ġend time
ex port
ex hau
Ġtmp envs
ĠW IMAX
pro blem
TI G
Ġvp d
Ġrc md
Ġptr ace
ld st
Ġwh ere
Ġal ert
ext d
Ġcount ers
\\" \'
tra iling
MO TE
md Data
db h
fd ct
Ġstart ing
Ġvm w
IS REG
load Image
Ġcl k
De legate
Ġbo ok
ĠJ SON
Ġrd f
PAR AMS
Un its
Ġsub tlv
Ġsub nodes
READ ING
SY MB
Get String
Buffer s
Buffer Size
Ġno ise
Ġthis mse
Ġms ch
Ġtemp o
WR ONLY
Val id
Color Space
Read ing
Ġht onl
leg acy
Ġhash Table
Ġclass data
EV T
Ġpg off
Se lect
Ġan y
Ġprofile s
Ġcompression id
Ġblk sz
Ġhw accel
Ġdw c
iov s
Colormap Value
Ġback end
Ġui GPIO
Device s
clu ded
CTX T
extra ct
dest ination
PASS WD
Ġcd s
Ġrender ing
condition al
Ġenum er
ward s
Ġab rt
Ġpred ictor
element s
IENT ATION
fil led
tc cp
Ġflop py
Ġsll c
ĠRPM VERIFY
ĠStringTo Double
ĠValidate ColormapValue
expi ration
ĠRA W
EXCE EDED
Ġber secretkey
break out
Ġdeleg ation
abbb bb
Ġgre h
ExifMnote Data
vis ible
ĠCloneImage Info
ential s
abb bc
ĠSWAP LONG
scri be
Ġaddrt ostr
Over flow
Ġexist s
eat ws
ĠNPPV plugin
Dist ance
Sector Size
Work er
exhau sted
SYMB OL
, =
0 12345678
8 042
A bsolute
E FFECT
F PU
a ead
a pt
c ms
o om
w c
y o
Ġ ULONG
an no
en gine
tr ap
de w
Ġre l
Ġre cur
or ing
Ġf old
Ġf puts
le ak
Ġo ur
Ġv fp
Ġstr buf
un reach
ĠS QU
Ġch ans
Ġsize s
RE USE
RE LEASE
dr aw
pt or
ĠC LE
ĠC CP
DE S
Ġma terial
ri er
ĠI R
ĠT oken
Ġne lem
ĠB LK
ĠG RAY
SI VE
ID R
CH RO
ĠW Log
frame type
Ġcur Y
fi b
mat ind
Ġal ts
Ġpar v
Ġbuffer Len
be cause
SU P
SU ID
Ġpu d
LOCK ED
new f
Ġold p
PRO BE
Ġrs a
10 4
ax is
Ġra ptor
iter ator
Ġms ix
Auth orization
Ġtrans late
CONT AINER
Ġchannel Context
Ġsig ma
Ġus ing
zero s
OM V
CHAN S
ATION AL
Ġcb ps
Ġpk thdr
ĠGetPixel Green
Ġ'< '
RES ULT
OPTION AL
** *<
Inter nal
DP B
fl t
over lay
Ġsr v
non ce
ĠPixel Info
ĠCon catenate
26 9
POL Y
gener ate
WM V
ASH FS
spl us
Ġparsed tag
Ġcmsg hdr
MG MT
ĠPro tect
ĠAU DIO
Ġhuge page
vid er
way s
mail box
Ġpkto pts
Ġvf io
Ġsym link
ĠSample ToChunk
SPECI FIER
writ ing
Ġbf q
ĠMAKE ID
HU GE
ĠTAIL Q
Into Buffer
012345678 9
ĠSQU ASHFS
ĠGRAY Colorspace
5 12
8 7654
A I
A pp
B ID
C ID
J OR
N et
P ut
T ASK
X DECREF
c str
c irc
e val
h op
k hz
l xc
o licy
p it
p fn
p lain
q m
r f
s an
v i
Ġ WE
Ġ \'
Ġ LOOKUP
Ġs im
Ġs conv
re verb
Ġc label
er nal
Ġp P
Ġp val
Ġp file
Ġre store
Ġf pl
Ġf dest
Ġf anout
Ġ" _
Ġn sc
Ġin fl
ad ow
le Mode
Ġu mount
Ġu ctxt
Ġe vp
Ġe lt
Ġe scaped
Ġd id
Ġv size
Ġv idx
Ġv af
Ġr le
ĠN SEC
Ġg fi
Ġm box
Ġa q
un its
un signed
err str
ĠS v
ĠS ource
ed List
li f
ĠE xt
RE SOURCE
Ġk nown
ĠP UINT
Ġw len
Ġw sz
ĠT P
ĠT IOC
ĠT IPC
Ġpa tch
Ġj ava
SE CTION
PR M
Ġout len
la pic
op pl
Ġen ctype
ĠD S
Ġnew Index
UN DEFINED
Ġnum chans
EN TIC
CH OR
CO ME
ET IME
Ġti pc
ter list
def in
fi bsize
BIT FIELDS
user faultfd
Ġun i
Ġcomp ute
start s
11 0
11 00
Ġaddr len
Ġsp an
File Ptr
all y
Sh a
PRO GRAM
Ġrt h
SC OPE
Ġvar s
Get Remaining
Ġfs uid
ĠQuantum Any
FILE NO
ps pi
Ġiov cnt
BO OT
pid s
Ġmd m
Ġdevice list
ĠpS MB
Int ent
SA FE
IM AL
Ġchm head
war f
Ġqu ota
Se tup
Enc rypted
Ġput c
cap ture
DEF M
Ġar m
Ġcall id
parent s
Ġneed s
Reg ister
Ġpre code
Ġui SectorSize
Ġpp md
URN AL
Ġpmd val
bd addr
Ġioc num
delay ed
Frame Buffer
sr v
pad ata
EXIT ING
prec ision
PL US
Ġdj rcv
progress ive
Ġyymsg buf
ĠFile Id
DISP OS
ĠWrite Blob
alD oppl
Ġdash er
ĠpC mdData
RCV TSTAMP
DIVIDE S
OV ERR
ĠOutput Buffer
ĠOutput Length
ĠUn pack
Ġyyerr status
Ġcomple te
Power Mode
Ġgif FilePtr
Ġinv ocation
Ġiden tific
BRO ADCAST
dra ft
ĠALOG V
ĠLIBX SMM
dyld cache
Ġmsch md
87654 321
Ġ\' \\"\'
GetRemaining Length
alDoppl er
! <
; "
C a
D VAL
E CON
F ind
G RE
G FP
H Z
H TML
K VM
L B
M NT
O ff
R IB
S ig
S CTP
S ounds
T ick
f ramerate
k adm
l ight
l ittle
p I
s lc
u red
w mem
x Read
z x
Ġre v
or tid
Ġb ond
Ġf map
st ype
al led
Ġn res
Ġn points
Ġu uid
to t
Ġd ce
Ġv term
IN S
un try
ch dir
ĠS RC
Ġde tect
Ġgo p
ĠM y
ĠM ono
ST D
ĠC olor
Ġw o
LE X
no p
Ġarg ptr
ver s
mb n
ĠD BUG
MA KE
Ġop endata
UN INIT
SS A
Ġtr im
TI CKET
EX PI
unk bd
fs ync
Ġz socket
Ġz Db
res ched
Ġget gid
Ġun compressed
ab rt
rb io
IC S
MS C
Ġcl p
Ġcl asses
ĠRE FER
queue d
Ġ12 4
Ġenc s
Ġlist ener
enc rypted
Ġbits PerPixel
Ġbest sad
Ġmo ov
ĠDestroy StringInfo
Ġpix Destroy
go od
sec ure
Ġ9 0
Ġtoken info
pkt info
Ġpk init
ĠGetPixel Blue
client s
Log ical
he ap
Ġrep lay
partition s
NET IF
ĠFF ALIGN
ĠPRE DICTION
abs olute
child ren
play list
hw tstamps
HANDLE D
Ġsele ct
ROUT ER
exce eded
exce eds
privilege s
Sc reen
Ġdont frag
CONSTRA INED
Prec ision
ĠFA ULT
Ġ077 7
WEL COME
ĠCLE AR
ĠREFER ENCE
2 16
C MS
D U
E qual
K PASSWD
N OP
S ect
S chema
T C
T cp
U C
V IEW
W ord
a es
e asy
i ro
i et
m ous
n itude
p buf
p lic
q type
q uantum
r dev
s dma
v endor
Ġi thread
Ġs co
Ġs uf
Ġs of
Ġs Copy
Ġs unkbd
re write
Ġc rt
Ġc sync
bl ish
Ġre negotiate
Ġf io
Ġf prog
Ġ" ...
Ġin i
Ġl sb
Ġr op
ĠN API
id ents
Ġg rr
Ġg sp
Ġg uid
Ġstr tok
co pied
un e
un link
un recognized
Ġh elp
ĠS INGLE
ĠM AT
pa st
ign oring
ĠR x
dec orator
as user
ĠA E
Ġdata p
AC C
OP F
fa ul
ĠF TP
ver naux
ĠD IV
ne mon
es Info
Ġct s
Ġto c
UN SIGNED
CH O
ref erral
ĠV dbe
ation al
ĠH ASH
Ġline width
log s
Ġext len
DI FF
DI ALOG
Ġfa ctor
SU PER
SH EL
Str ut
IO BufferSize
Size Precision
Ġprint val
comp ens
CHECK SUM
EXT D
ĠYY STYPE
Ġad ts
Ġbe fore
desc r
pos Y
Ġhdr incl
ĠJ s
Ġrd n
Ġcode words
ĠERROR S
ĠIP STATS
CP Y
Ġro i
Pro xy
SC SI
Ext ended
Ġplan ar
Ġph ar
>- ><
abl y
ĠTI MER
COMP RESS
Ġcheck ing
ĠST D
xff f
mod ified
Ġshort cut
Ġbs on
SA VE
hel lo
process or
sync d
Ġcred ssp
Ġqu iet
Ġreply Size
SUB SC
GB RP
Ġar p
DIR TY
Ġsec ret
REP NZ
Ġneed le
sele cted
fl g
he rent
Ġcmpt no
ĠPRI X
ĠCL IP
Bytes Per
Ġui Temp
prob ably
ĠWPG BitmapType
unserial ize
Ġat t
>/ <
Ġuc Reset
keyword s
Ġpeek ed
ĠPRO FILE
SEND WORD
EXP AND
ĠAD D
Ġmulti plic
ibu tion
ĠValidate IOBufferSize
ĠpC sr
ĠGetQuantum Extent
---- -
Ġexpi res
Ġcancel lable
subo pt
srb cmd
ĠNTLM SSP
Ġnamespace s
Ġboot stage
ĠGetStringInfo Datum
aac raid
Ġmvsad cost
dash er
Ġlic ense
PATCH WELCOME
Ġmemp olicy
ĠERESTART SYS
Ġrlc inf
ĠPos SizePrecision
Ġfmtop v
ĠResize QuantumMemory
POLY LINE
Sect Strut
ĠsCopy SectStrut
Ġcrt c
Ġgsp ca
ĠuiTemp Var
ĠucReset Value
Ġmultiplic ands
B N
D PRINTK
E FLAGS
H id
I SS
O MIT
O pacity
P CM
W S
[ '
[ <
d er
h mac
n ic
p rep
x B
x chg
} <
re el
Ġc name
Ġc lamp
er ce
Ġp Limit
Ġp reempt
se x
se cs
ma Value
me from
Ġl im
Ġo fs
Ġd t
Ġv cnt
Ġr info
lo y
Ġt kt
Ġt tm
Ġm ch
ce p
ig maValue
Ġco erce
Ġco mefrom
ĠS igmaValue
set sockopt
ĠE SIS
RE LAY
ĠM ET
Ġk unmap
Ġy d
Ġy end
ST AR
Ġx end
ĠP B
ĠP S
ĠP OL
ĠP END
ĠC ASE
ĠC MSG
ĠR S
Ġ' ['
Ġout pos
Ġbuf p
Ġval s
sg id
ĠD irect
ĠL AYER
ex tr
MA JOR
Ġcp kt
Ġtr a
Ġip sec
Ġdst p
col located
Ġpro mpt
am s
user name
mi me
SL T
Ġcomp iling
UM N
ĠAV IO
AG G
ĠO p
Ġread y
Ġpixel format
bits buf
Ġpc lr
UT EX
Ġth row
comp are
IF REG
av i
Ġad hoc
US N
ĠX DR
Ġrt ype
Ġhandle d
Ġauth time
Ġfs l
mount point
ail able
Sta ck
Ġsign ame
ĠDestroy QuantumInfo
Ġht ml
BO OLEAN
mod ify
Ġmv cost
pri or
Ġtcp hdr
CAP ABLE
Ġoption al
REQ KEY
control len
Ġmeta st
rule s
UND ER
Ġter minal
Ġbi trate
usb dev
Ġconne ct
Max imum
pointer s
No te
ĠNE WMV
Ġat tached
position s
Comm it
ĠosStr len
Ġhigh bd
GEN FS
Ġrecv d
align ment
ĠParse Geometry
Ġsecond s
ĠAPLOG NO
Ġrh o
BR ID
Ma trix
ĠgdImage Ptr
COMM UNIT
sin ce
drv data
Ġquir ks
Ġcor rupted
ĠTOK EN
tg s
tv parser
Ġitl q
intf data
Ġstu dio
Phy Reg
OWN ER
bas ename
ĠTL SEXT
ĠMAXPATH LEN
Ġsubt reel
Ab ort
ĠDirect Class
COMMUNIT IES
Ġsubtreel ist
' '
2 24
8 34
C b
M IDI
S u
S ORT
V ol
Y O
b debug
f in
h oriz
i h
i lient
i seq
k en
p f
p mb
p seudo
r fc
v br
x Write
Ġs oft
re cur
Ġc flags
bl ur
de tect
on ality
Ġf id
Ġf ont
Ġf cntl
al go
rt ition
Ġ" #
Ġn agios
to uch
Ġd put
Ġd bo
Ġd msx
mp us
ĠN t
ĠN vm
Ġstr oke
co herent
Ġa a
un ame
Ġch dir
pi od
Ġk ref
Ġk leave
pa m
AL M
ST N
ST ER
ĠP LIST
ĠC url
ĠR W
Ġw mm
00 1
Ġq ib
ĠB o
ĠB uff
sk el
ĠG RE
la c
Ġarg Reg
sta blish
per mitted
ĠD B
ex cluded
MA PI
LA SH
UN ITY
read only
Ġcp p
ong o
FI ED
Ġrc ipher
Ġid p
Ġz stream
BIT STREAM
ĠH SM
res ilient
Ġun icode
CON FI
ok ies
AP PL
Ġas m
Ġas printf
ĠO C
Ġframe p
Ġ5 2
md b
ĠSet Page
Ġ16 384
Ġnet Buffer
rec ipients
sy scall
Ġ'\\ ''
path s
TO OL
Ġreq p
tp g
ĠYY EMPTY
Ġgen l
Ġad min
Con t
ĠRE JECT
Ġpos X
sub pool
Sh ut
check er
ĠIP SEC
Ġtile buf
SC REEN
Ġmin sz
Ġauth orization
Comp ress
mount ing
pred iction
Ġpid file
Ġhead count
Ġim mediate
Ġdevice Name
Ġcap s
dl c
Ġpv a
Ġpv Buffer
Add String
Ġca ught
Ġap Val
IM M
En abled
En tity
ĠSetImagePro file
ĠEx if
spec ial
DEFAULT PRINT
Ġlua i
Ġchan no
DEF L
44 0
cred its
ĠRT M
HO ME
IDE N
Ġcd y
Ġsyn tax
Ġsyn chron
Ġfe ed
Ġmul ticast
Ġpack Add
ĠUstr len
SPE ED
GEN ERIC
Ġscanline size
inv ocation
SKIP PED
view s
HEL P
hs list
MV BUF
variance s
Lay er
ĠMIP S
expi re
ĠPa rtition
ĠSV C
ĠNP STR
Ġreslevel no
COMM UNITY
ĠOR IENTATION
Ġmer ge
Ġmer kle
flo or
Ġsubl en
NL RI
Ġpers onality
Ġsrb cmd
ĠZER OMV
Pre paring
Ġtrail er
initializ ation
sensi tivity
ĠId leMode
DISPOS ITION
nemon ic
compens ate
Ġtra fo
ĠNvm Ctx
4 04
B LAN
C Y
D river
J son
L P
P rev
R G
R TYPE
S peed
V END
X ML
a tom
f sh
g rea
i mation
l pspi
r le
s aved
u blic
v irtual
Ġ ble
Ġ DESTROY
Ġi len
Ġi sk
re mainder
Ġc ell
Ġp ag
Ġp buf
Ġp tep
Ġ0 755
or b
ge ta
Ġf len
Ġf ips
Ġ" *
Ġ" ?
Ġn id
Ġn dev
Ġn mv
Ġn Col
Start up
Ġl an
Ġl blk
Ġv iew
Ġr and
Ġr ps
Ġr curr
Ġm flags
IN I
Ġa mt
Ġa Op
un ique
ro f
ro file
fo l
Ġh alf
ut ls
set f
ĠM e
Ġk c
Ġerr x
Ġy uv
ĠC IP
Ġw q
ri entation
get info
at tern
ĠG LOB
ĠD ump
NO SUPPORT
UN WRITTEN
ET CH
Ġti tle
Ġkey file
fs uid
Ġlo ss
ĠH PAGE
mo unted
line proc
Ġun c
Ġun map
Ġfa ke
cpu s
Ġpath name
ĠENO PROTO
IS O
Ġdi rty
Ġref count
Ġsy stem
Ġenc Str
req body
inc lude
pc i
Ġrt ime
comm unity
ĠSetPixel Gray
REG ION
Ġbin file
malloc z
SR P
Ġroot dir
Ġdevice type
DEC R
Ġraw print
can on
Ġrp ki
Value s
rcv d
ak er
hand shake
Ġupdate Rect
Ġnl k
Sample Rate
Ġhid den
imp eg
Ġpl atform
94 94
ĠHTML lineproc
ALG OR
ĠMB s
Ser vice
ĠSH M
finish ed
TRANS IT
prec ated
Ġstrto ull
Ġbu cket
Ġover write
Ġhf splus
tim ing
does n
SELE CTOR
=\' %
unpack lo
NORMAL IZE
dep loy
Ġgra ph
MIS MATCH
Ġhy bi
Ġmacroblock d
Oper ator
ĠIndex Packet
ĠGetImage Option
Partition Map
\\": \\"%
TEMPOR AL
leak s
Ġmetast sc
BLAN K
VEND OR
fsh elp
grea ter
ĠCIP SO
ĠENOPROTO OPT
3 14
> >
A Q
A s
B X
B LOB
C IB
F old
G OLD
G amma
H D
I PE
O CT
P MD
T ID
U MA
U ATION
W T
X MPPacket
[ \\\\
] +"
b map
c n
c q
c string
h sm
i con
i Res
k w
p mc
s val
t wsk
v n
v ity
w GetRing
y our
SV C
Ġs ar
Ġs la
Ġs time
Ġs context
Ġs lp
in u
Ġp prev
Ġp mgl
tr limit
Ġb Shut
Ġb Preparing
Ġf u
rt i
Ġ" =
Ġ" ?"
te uid
Ġn D
Ġn sk
Ġn offset
Ġin coming
Ġu ts
Ġu sn
Ġu wq
Ġ1 50
Ġl in
Ġl addr
Ġe os
Ġv ex
Ġv branch
Ġr ollo
Ġt data
Ġm l
Ġm u
ss ids
ĠS HO
ĠS ocket
ĠE ADDR
end points
Ġy es
Ġy ear
ST EP
Ġx save
Ġx cf
Ġx mpp
ĠP CD
Ġw rapper
ix er
get line
con version
Ġout format
ĠB lob
Ġ4 6
la unch
Ġyy type
Ġyy syntax
ĠF ORE
AD VERT
ĠL VAR
Ġtmp desc
Ġop li
Ġto len
UN Info
ID C
ID CT
Ġdev icenames
ic c
Ġip comp
CO VER
ĠRead Bytes
io ctx
ĠEX IM
Ġmsg count
ĠPy Unicode
Ġcur len
Ġal Device
ext ended
Ġun til
ab bc
\\" :%
Ġle ad
Ġsp m
Ġsp n
IO US
Ġser io
Re ports
IC ATION
Ġac pi
from io
av ings
ĠYY POP
ĠYY ABORT
De v
De faul
Ġdo pt
STR ICT
Ġserver s
tmp data
ĠDe coded
ĠX FRM
PRO XY
cmd line
Ġdec imation
hash rnd
ms afe
CUR ITY
Ġmnt ent
open ing
rege xec
Ġcheck MAC
iv ing
Ġnode s
rypt d
Pa rent
Ġtrunc ated
ĠMO V
ĠST ART
Ġadd flags
Ġadd Reply
CAP AB
HEADER S
rcv timeo
Ġge msafe
Ġssh pkt
Ġmac inf
return s
Ġopen asuser
alg orithm
Al low
Ġfh d
wait queue
ĠUN ALIGNED
pd wGetRing
imp l
Number Of
Ġpartition s
ĠAL C
Time out
>%. *
RX Q
Ġmark er
PIC BUF
For Low
chroma ticity
CONNE CTION
INV OCATION
dist ortion
SM ALL
ĠCPU X
Ġflip ped
Po ol
LAT CH
Ġdigest s
Ġlisten ers
YP TION
ĠDIS PLAY
Ġpol arity
Lay erInfo
hid dev
Loop ingSound
Ġhop opt
ĠPa irs
Ġinterlace d
Ġod ata
Ġcq spi
Ġdeleg ate
Ġqalc GetString
bnd u
anguage Level
Ġsarray AddString
Ġins ns
ĠLL CP
Ġinputdev icenames
ony mous
igno res
Ġmis c
Ġinputdevice list
RIP T
bro adcast
Ġyyerr lab
MIS C
keep al
ĠTIFFGetField Defaul
Ġargument s
Cr ash
Custom Color
II H
ĠpRead Buff
Ġiw l
Ġconsu me
Ġoriginal Size
ĠInsert Complex
redictor State
Ġsige v
xFFFFFF FF
Ġsma rt
Ġgi idc
Rev ision
ĠDebug Log
FLOOR DIVPOW
Ġwre rr
Ġmail box
ĠstNVMRead Write
ĠReadDC MS
Ġenumer ation
anno unce
Ġ"... )"
ĠTOKEN EXTRA
APPL ICATION
ĠGLOB AL
iRes BoundingBox
ĠbShut Status
ĠbPreparing ForLow
Ġrollo ver
ĠSHO W
ĠFORE ACH
ĠYYPOP STACK
ĠDecoded Value
ĠTIFFGetFieldDefaul ted
ĠbPreparingForLow PowerMode
% %
: [%
A EAD
D one
E MON
E valuate
H OLD
O pt
O TH
P h
P ublic
R IGHT
S MP
S ps
S ync
T uple
U ET
W IDE
W ANT
Y NC
b tree
c and
g l
g so
h macs
i mate
n by
o q
p df
r st
s ite
s lash
s pawn
t t
w rm
y uv
z d
re pair
Ġp addr
ma chine
Ġre ge
Ġf sec
Ġin sert
Ġu ECC
Ġo ptr
Ġv ld
End points
id ual
rea uth
Ġm vc
Ġm gr
Ġm ongo
Ġa ad
fo ll
ĠS S
ĠE n
RE LOC
ĠM UT
OR AGE
>< %
ĠR LIMIT
Ġw av
Ġw Stream
00 10
SE PAR
cp oint
pr in
pr key
ve s
Ġ4 2
fa c
fa ci
TR IES
name d
ĠF or
ĠF USE
ĠD A
ĠL ine
Ġse ct
EN CR
Ġis ak
ĠH DB
Ġget env
Ġline buf
log ical
12 7
LOG ICAL
Ġcomp ressed
Ġcmd size
Ġbuffer len
MO USE
IO V
Ġmb s
NUM HOOK
MEM CPY
Ġfd t
pc m
ĠIS R
SC ALE
Ġchunk s
Ġmin imum
BG R
ial ize
REF RESH
Val u
Ġdis c
version s
sec comp
seg mentation
Me mo
DEC RE
Ġsig action
bound ary
prefix cmp
Ġresp ond
Ġssh key
Se parate
Ġbuff ered
ĠWavpack Little
ĠSIG EV
exec ute
ĠRe served
ĠFormat Tag
Ġprec ision
Ġnon rd
xh d
namespace s
den ied
Ġmain prog
ĠVer sion
Di rectory
Ġalign ment
ĠNo Compression
Ġvda ux
ĠVER SION
ĠAD J
Loc ation
Ġunpack ed
EXTENT S
Ġrmtblk cnt
ĠNet Interface
ww w
ĠpB t
ENO ENT
negoti ation
SND BUF
ENUM ER
ĠGray scale
fol low
Evaluate Operator
ĠMUT T
faci lities
NUMHOOK S
ĠWavpackLittle EndianToNative
( ):<
C rea
C SR
C ARD
D UP
E IR
E PROM
G ER
I ED
I RO
J I
M al
T imer
W HITE
] *
a ea
a toi
d q
e poch
f lex
i re
j as
k ctl
l tm
l atpak
p ubkey
s at
u ted
v ed
re queue
an ity
Ġc sp
er a
Ġp adding
se parator
Ġf di
al num
Ġn od
ar gest
Ġu lp
Ġl afe
Ġl iteral
Ġl vd
Ġe ptr
to bj
Ġd ref
mp f
Ġg mpls
Ġt info
Ġt port
Ġm size
Ġm ips
Ġm hlen
Ġa sk
Ġa tl
el t
el ts
Ġh fi
ĠE EPROM
RE W
pi p
Ġk calloc
AL PH
Ġx h
ĠP E
ĠP IC
ĠP ALM
ĠC AT
ĠC LO
ĠC alc
is k
ĠR ed
data len
SE N
ĠB AD
fa ct
Ġvo s
Ġyy value
ĠF ix
ĠF TEST
ĠD atum
put w
ĠL LONG
ex cl
Ġto tlen
UN MATCH
CO UN
Ġobj ectid
Ġkey frame
po sn
Ġta rg
Ġcur size
ac ct
ĠH EL
res olve
mo st
Ġun p
12 2
mi b
Ġle ader
Ġcmd data
Ġas f
Ġ5 01
Ġgf u
MEM BER
Ġac ct
comp atible
To Object
desc ription
Ġdo m
pos ix
lan es
opt len
PP P
Ġrd ma
Ġsub key
da ux
ENT ER
Ġtime val
ĠIS OM
config ured
eff ective
ĠReadBlobLSB SignedShort
Char acter
cc m
cc cc
auth z
update s
Ġtrans ited
go ing
send msg
Ġim sy
PRE C
Ġclass book
zero out
CS AP
25 4
Ġ"- <
Ġcrypto ctx
Ġcrypto Info
Ġpk cs
Ġcred its
AUTH ENTIC
Ġpass ert
SUB OBJ
fp op
34 10
xf er
Ġbuff len
Ġblk nr
Sign erInfo
Ġxml Parser
Ġmc ryptd
mc ast
xFF F
Ġalt setting
Ġfe ature
ĠNET LINK
Ġstack idx
96 60
pk thdr
Ġcg c
ĠTK T
pac ing
Float Defined
EMUL ATION
,% .
Ġke mpf
Ġnf ca
stop ped
Ġcms UInt
tiz e
ĠIs FloatDefined
ĠVer daux
ĠValid BitsPerSample
Var Free
Arg ument
tim ings
Ar ch
ĠFile Type
ĠEV T
Ġdg st
Ġdg nc
Ġjump stack
privile ged
LU SH
bnd l
Ġ655 35
ĠLL CSAP
Ġcalc ulate
NEG ATIVE
EXTEN DED
ĠDD SC
Ġadap tive
BA SIC
Ġscat terlist
LZ MA
numer ical
ĠAVFilter Link
ĠbNum Endpoints
TIG ON
Ġquota len
AGG REG
DECRE ASE
ĠGrayscale Type
Ġfdi ro
Ġyyvalue p
( '
5 02
A udio
D ER
D LC
E AR
L F
L ib
L RU
M anager
M bps
N OPTS
N ATIONAL
P STR
P SK
P attern
S kip
U l
Y V
a de
a hash
d id
g ro
h ib
m x
n an
n Max
t on
w atch
x dr
Ġs upp
Ġc la
Ġc yclic
er ialize
en ctype
in cts
Ġp vec
Ġp ortid
se v
se tid
tr igger
Ġre mainder
Ġf lac
st ime
Ġ" {
Ġn x
le aving
Start ing
Ġe m
Ġo fd
Ġo vpn
Ġd offset
Ġr k
th rough
ĠN s
ĠN AME
Ġg ps
Ġstr p
Ġa ce
Ġa ctx
un ip
ss ence
ch own
ĠS Z
ĠS kip
Ġps k
Ġk uid
Ġsk ey
AL ERT
do pen
Ġx malloc
Ġchar acter
ĠP AD
ĠP TRACE
ĠR FC
Ġw ith
IT OR
if addr
Ġ' ('
Ġdata gram
buf type
Ġst mts
sc ene
ĠL PSTR
UN AS
Ġnum er
ID LE
CH E
Ġip hdr
FF F
Ġkey info
ĠPy Mem
Ġid s
ac ross
Ġcpu c
out side
Ġpo inter
be v
Ġas ync
Ġsp printf
Ġ6 2
ind icator
De frag
Ġoff screen
seq ent
check ing
Ġpacket String
Ġup d
GP AC
ren gth
=% .
ith er
env iron
Ġsz Name
Ġsz FileName
Ġdis sect
scan table
ly mpus
cb p
head len
flow label
Ġht c
0000 0000
Index Queue
WA Y
Ġca pabilities
En v
ĠEx tract
mal formed
Ġfmt buff
mac ro
ĠUN IX
factor s
last mbs
ision s
Stream s
flush frm
Ġab br
boost ed
FRAG S
FRAG MENT
ĠosStr chr
Ġmodule s
ĠPRO TO
Test Suite
ĠEV ENT
REAL M
Tile s
Ġnex thop
FEATURE S
noti ce
Ġuns erialize
Ġlibc error
NAM IC
Ġtick s
Ġaudit log
Ġcommit ted
Av ailable
ATTRIBUTE S
Ġpvc lock
Ġneighbor s
ĠpF K
ego tiate
ĠmacMsg Data
ĠAVCodec Context
HUGE PAGE
ĠMe ssage
Reports Size
Crash ReportsSize
Ul tra
hib ited
unip er
UNAS SIGNED
ĠExtract Postscript
% +
1 024
5 11
A u
A rena
B SD
C LA
C IR
D iff
F w
F OL
F atal
F uji
M aker
N I
N on
O rientation
P OR
P MTU
S ec
T op
T CB
U A
Y I
a ctor
b read
d ont
g u
h ort
h cache
h orizontal
i get
l ue
m its
n n
p m
r sk
r desc
s LSB
s MSB
t wopass
t tle
w ater
Ġi op
Ġi Right
Ġs offset
Ġs Wrm
re loc
re strict
Ġc abac
Ġc allo
en tax
in ference
Ġp asses
Ġp Old
se tattr
de grade
on line
Ġre queue
Ġb ct
Ġf type
st ref
st ill
st dout
st anza
Ġ" `%
te Image
Ġn y
Ġu data
tu r
me ss
Ġl stat
Ġd ct
Ġd td
Ġr bytes
Ġr und
Ġr host
rn g
ĠN ode
Ġt pay
Ġm obj
Ġm ixer
IN LINE
un g
un ion
un hash
ro ttle
ue ss
Ġh r
Ġps in
li ve
ĠE LE
ĠE FLG
RE NAME
RE SID
RE SERVE
OR G
of day
str l
AL C
do g
Ġx l
ĠP V
Ġsta ge
ĠC LIENT
Ġw ild
Ġw ks
ul ong
LE Exception
ĠI pv
ĠT JA
name format
SI Z
ir k
ĠF lo
ĠF IL
ĠF YI
sc aps
ĠD MA
Ġnew owner
Ġ3 8
Ġ3 600
NO DEV
Ġse tobj
ex tu
Ġto vars
UN FINISHED
In The
bit ness
ĠV FS
ĠV Ter
pro mpt
pro tected
pro hibited
Ġkey size
Ġmem chr
ter ns
Ġname val
Ġ"% -
pic set
ĠPy Arena
fs blk
fi ber
ac tivate
Pixel Packet
Ġlo se
out er
out going
Ġget cfg
IP X
AP S
ĠAV Format
AG REE
Ġ5 4
Ġnext link
Str ips
ĠSet StringInfo
Ġsp nego
NE AREST
Re mote
Ġuser space
Ġac ptr
Ġlog book
To o
Ġvm l
IF MT
ĠMS BO
ca pabilities
ĠThrowR LEException
Ġtp gt
Ġkrb error
Ġss ids
ĠERROR TOKEN
Ġsub pixel
chunk ed
obj core
XX XX
KEY AGREE
ĠQ AL
main tainer
env if
Ġpe free
Set Bit
Ġsample Rate
Ġsz MAPI
Ġdis pose
Ġproto s
filter s
ĠCH AR
ĠSetImage Option
flow i
Ġmv s
DEC ORDER
Ġdd scaps
Ġadd itional
Ġpd x
Ġpd y
proto sw
Ġca iro
PM C
Bo ot
EC DH
INC LU
ĠAR R
36 9
lace ImageInList
Ġfrom vars
Ġflag str
IZE D
DEF ER
Ġpipe fd
Ġsec ure
Ġai ro
Colormap TypeNotSupported
non mbaff
REC IP
NS ORDER
RED U
Ġcc m
FE ED
MON O
ĠPixel sPer
BACK WARD
Ġwindow s
Ġstat buf
Ġpl ug
anch or
ĠCopy Tag
Ġcg dir
INDE NT
Ġdm sy
Ġgp m
For ce
Ġdccp h
INE MA
cor rupted
Ġflush line
jor Version
Min Max
Ġrh p
Debug State
tim ize
Ġel ts
Ġupper path
Multi ple
cmpt type
ĠImportQuantumPixels Failed
under flow
iction ary
Ġswap ped
ĠMP LS
Ġoc tets
== ==
Unsupported CellType
ExifMnote Canon
ĠEF TYPE
ĠName Flag
Ġenviron ment
ĠpRead Data
ĠSCSIDisk State
ĠSCSIDisk Req
DELI VER
Ġbro adcast
ĠACP I
GUEST DBG
hard link
ĠQU IRK
ĠbInterface Number
Order By
ĠRep laceImageInList
unreach able
MSC Warning
Commit Message
ĠOC FS
ĠReadDCMS hort
ENCR YPTION
Ġisak mp
ĠCalc MinMax
xFFF EE
ĠDDSC APS
Maker Note
ĠsWrm Buffer
Ġcallo ut
Ġrund ir
ĠELE MENT
RESID UE
InThe Matrix
ĠVTer m
ĠMSBO rder
KEYAGREE MENT
UnsupportedCellType InTheMatrix
2 02
< %
A ction
B egin
C rypto
E MO
H OR
H ex
I g
I o
I FF
O lympus
P SE
P DF
P ZVAL
R ad
R RE
U GO
V ANCE
W IFI
b t
b order
c v
c rl
d w
e rent
f printf
h c
h alf
l sh
r ss
s d
s low
s ive
Ġ blank
Ġi tag
Ġi bh
re peat
an sion
Ġc lean
Ġc arry
Ġp mtu
Ġp ubkey
de precated
ma de
Ġb Length
Ġf g
Ġf t
Ġf size
al u
Ġ" ]"
Ġ" *"
ad v
Ġ1 16
od ak
Ġe len
Ġd ns
Ġd type
Ġv ect
ff t
Ġg size
Ġg rp
Ġg lyph
Ġt n
rea ched
Ġm lock
Ġm vp
Ġa h
UL D
Ġco ff
Ġco ef
ĠS vc
ĠS FE
Ġcon struct
Ġde leted
ĠE D
Ġgo al
Ġgo od
Ġ2 34
Ġk map
ST SIZE
Ġx max
ĠP r
ĠR d
Ġw ant
Ġw rk
Ġw ritable
ri m
arg er
Ġne block
Ġq op
ĠB lue
TR LE
Ġarg tod
file size
ist ered
Ġnew tp
NO UT
ĠL o
Ġtmp str
Ġto pic
Ġto obig
In itial
Ġnum entries
block nr
Ġsock Ptr
cur sor
Ġid str
RA P
Ġis ons
AN G
AS YNC
DR M
FA X
FA NOUT
ĠK VP
be h
max bytes
ĠGet VirtualMemory
rag ma
MEM ERR
Ġac cu
Ġad b
Ġdo end
ĠRE C
sub sampling
ĠDe v
ĠX T
Sh ot
Ġsub dir
chunk hdr
var iant
Fa il
Col umn
dc b
ĠMAX DATE
wd in
Name s
cache p
Ġevent fd
Event s
Ġregs z
ĠAcquire VirtualMemory
fe of
ĠSA FE
Ġsf name
trans mit
ĠMO D
mod ification
Ġtcp port
PER F
ĠPR OP
control ler
lace ment
Class Def
diff erent
Enc oder
hand ling
Ġrds debug
Ġsegment s
thresh es
Ġdist ance
ĠRe move
ĠNE STSIZE
syn th
Open Error
Ġshm id
PH ASE
Ġrw state
Ġbitmap Data
TRANS FER
Ġrpm ts
super block
Po inter
ĠCUR L
ĠNL PID
gap s
ĠDIS K
fil m
ĠRO UND
Ġkw onlyargs
ĠAD VANCE
ĠFile OpenError
Trans fer
SEQ PACKET
APP LE
Ġdcb nl
infl ate
EXCL U
ĠOB J
Send er
some data
WW W
repr s
ĠSER VER
ENCRYPT ED
ĠEBAD F
Exp ression
constraint s
Wh ite
ĠChunk Header
ĠBo ost
DECR YPT
OCT ET
Ġrege x
COUN TER
ĠAVFormat Context
BACKWARD S
Ig nor
Ġisons ap
ĠGetVirtualMemory Blob
% .
* \\
> *<
? <
B LA
C DC
C RAW
D PRINTF
E O
E VAL
F inal
H CACHE
L ed
M ar
O UND
R ID
S p
b ank
d sp
d sa
e flags
e qui
f mov
g iven
h st
k d
l tr
l inux
m key
o bs
x refs
x Section
Ġ ATOM
Ġi addr
Ġi Method
Ġi scsi
Ġs leep
Ġs ighand
Ġc key
Ġc ctx
se ma
de tach
Ġre connect
Ġb atch
Ġb asic
Ġb drv
ge m
Ġf stype
al ty
Ġn col
Ġn sec
Ġin dev
Ġu ne
Ġe gid
Ġe mitted
Ġo file
nd x
ct lv
to ll
Ġd f
Ġd name
Ġd sb
Ġv ector
Ġr af
Ġr bin
Ġg piod
Ġm ouse
Ġa ps
ch o
Ġh or
Ġch pw
set cmpttype
ĠE PIPE
Ġk memdup
str ic
Ġy ield
ST AGE
Ġx op
Ġx envif
Ġchar buf
Ġsta mp
ĠC lp
ĠC CPOPT
ĠR GB
ĠR PC
Ġw ay
get sockopt
ĠI RD
con g
con ns
Ġq eth
ĠB RD
Ġyy result
Ġyy terminate
Ġyy exhausted
AR F
AR M
name length
loc ate
ĠF IO
ĠF IE
Ġnew dp
Ġ8 192
ĠL anguageLevel
sh op
sh rc
Ġtmp seek
Ġtmp eval
Ġerror msg
Ġto mo
Ġcp y
CT B
num id
CO EF
pro tection
ĠRead MAT
ĠU SER
TI ATED
Ġsh ash
Ġsh bp
qu irk
Ġpro gram
Ġcur Setting
Ġrc d
ld z
Ġis print
am less
Ġpi tem
Ġcpu hw
AN C
AN ON
AN TIATED
Ġsc n
Ġun used
Ġpr ch
Ġpr key
Ġpr oduct
Ġbp list
Ġbp cc
Ġmax Color
state s
IP S
Ġread conf
Ġdefault device
Ġframe buf
MO DRM
valid ity
inter n
Ġnext name
UT E
dis patch
min ated
Re lease
ĠThrow Magick
ĠImage Data
Ġstart mv
TO U
Id le
EXT CFG
ph ics
ĠYY DPRINTF
ca pability
sub size
Ġtag val
Ġjs v
ĠIP CPOPT
Ġmessage Length
Ġsn pal
DO I
Ġfs x
Ġsz Opt
Ġsz Rad
Ġnp al
skip pable
igh ted
rypt Key
FOR WARD
trans ition
Authentic ation
box info
rate s
Ġmv count
Ġfirst hardlink
QU IT
Ġclass words
ĠSC REW
result s
PM GL
Bo ard
Ġchm hst
36 6
Ġns proxy
mal t
AUTH FILE
aff ine
Ġlua D
Ġar roba
Ġbi Size
ADD ING
ĠUN CHAR
DESC RIP
Ġback log
ling er
round ing
NODE ADDR
const ants
PRIV ILE
bus y
job q
AUTO MOVE
Ġedit pos
Open Device
CONTIN UATION
Ġcli ps
RAN DOM
Ġwp hdr
hy per
VERT EX
Ġsecond ary
ĠHandle Z
oto shop
ĠPage s
Ġphase Inc
forward ing
ool box
ĠPa ir
SEG MENT
Ġirp Sp
Call back
Ġod m
Ġrpc ap
INST ANTIATED
oduct Type
inst an
BAND S
yp ress
swap ped
Ġcor rection
Ġmk dir
ĠAsync FunctionDef
Ġcons ole
Power Shot
Ġpx Block
Ġglob type
ĠCOL UMN
Ġphotometric id
Del ay
Sw Dec
ĠCMYK CustomColor
Seq Buf
GN UTLS
Ġtrun ctlv
ĠUpRight X
ĠUpRight Y
oo se
[^ \\
ĠEnc ryptKey
predictor s
ĠRAnal Op
ĠDFF ChunkHeader
ADV LEN
nod rv
Scan line
ĠDialect Revision
strn cpy
DELEG ATE
ĠFunction Def
INTERR UP
ĠTIO CM
SIST ENT
ĠHU B
dew test
ĠConcatenate MagickString
Ġsim ulation
Ġrdn SeqBuf
ĠAVIO Context
Ġloss less
UNMATCH ING
ĠHEL LO
nMax CrashReportsSize
FOL LOW
Ġbct oolbox
FEED BACK
ĠPr oductType
Ignor ing
equi v
Ġune scaped
Ġraf data
Ġchpw fail
Ġway out
ĠIRD A
Ġyyexhausted lab
ĠFIE LD
Ġtomo yo
ĠReadMAT Image
ĠThrowMagick Exception
ĠSCREW UP
) '
= [
B GP
D y
D on
E lem
G C
G ain
I W
I SL
M TR
M bs
N M
N r
O ne
P SN
P ADDING
Q ual
R SHIFT
S n
S IN
S ty
S cale
X FER
b g
c y
c ent
d quot
e cpoint
f read
g it
h ot
h ome
i dev
i tize
k uid
l g
l string
m ouse
n h
n il
n utls
s printf
u ma
v a
v oid
Ġ ents
Ġ LOOPBACK
Ġi ma
Ġi if
Ġs lash
bl ue
er gy
in addr
Ġp offset
Ġp Next
Ġp OrderBy
ma ging
Ġre dis
Ġre vs
Ġf list
Ġ" &
Ġn len
Ġn row
Ġu time
od ate
Ġe st
Ġe ol
Ġe msg
Ġe fer
ck ey
to a
to str
Ġd ip
Ġd dev
Ġv ert
lo mb
lo sure
th ing
Ġg nutls
un set
un ded
Ġh size
et ype
ĠS B
Ġcon tain
um ount
Ġps z
set key
set proc
RE CUR
Ġ2 14
Ġk vec
ON O
AL LO
ĠP PEEK
ĠC LI
ĠI BITS
ĠI maging
ĠT r
data size
data file
if rame
Ġ' )'
SE CT
SE CURITY
cp rof
no lock
Ġout name
ip h
sc roll
ĠD uration
Image Size
AD AP
UN ALIGNED
read l
Ġtr ust
EX THDR
cur mb
Ġid le
mat or
buffer Update
ight ness
ext ensions
mo ji
Ġget real
di alog
Ġun register
Ġun iven
Ch allenge
\\" ,<
\\" ,"
cpu id
ĠOP TION
Ġ5 6
blk cipher
Ġth en
mem cmp
To Read
Ġstream i
Ġold pos
und o
Ġsub stream
tl b
Ġdec oding
LIN FO
ĠCON F
Ġauth Params
REG EX
DO UT
scan ned
Ġtarget s
ĠAcquire QuantumInfo
request s
PA USE
rate limited
MAP PED
Ġparse fh
tag ged
ĠpS chema
CR YPTO
MULTI P
call er
target info
Ġhost s
ĠSOCK ET
Ġfc enter
byte u
Mode l
CL ONE
Enc ryption
Ġactive Sps
Ġpw p
START CODE
iov len
fix ing
Ġzip entry
BACK UP
descriptor s
Ġsas l
ĠFF MAX
LAN AR
Ġwork ing
Frame bufferUpdate
Ġprc no
gener ation
warn x
Ġshm flg
Dis play
Ġbig Endian
Ġiss uer
TCP V
ĠCUR LINFO
ĠSU B
GRA PH
PKT INFO
Ġel m
DY NAMIC
Last Error
Ġkv no
SEG V
MAN Y
UST ER
FET CH
ĠREQ UEST
istr y
ini tiate
ĠPlane Buffers
spin lock
deci mator
ĠpE List
ĠDecode Image
Ġnres levels
avi or
IDEN TI
Ġwav hdr
SEPAR ATOR
Ġulp q
REDU CE
EMO JI
beh avior
Encoder Config
ISL NK
Sty le
setproc attr
Ġuniven tion
( "
, }
2 95
9 20
= \\"
D SL
F X
F LASH
G M
G UI
H ere
H elp
I COUNT
L ING
M IR
N LA
P k
P rint
P entax
Q C
R THDR
S zx
S CHE
T IT
T im
U DIO
W PA
W SIM
] ,
a xc
c rt
e o
e mail
f ar
f at
f irmware
g reg
g ers
h h
h cd
i vpow
j it
o mem
p wn
q i
r id
r ink
w ak
x ref
y z
Ġi Start
Ġi ce
Ġs ct
Ġs tun
re covery
in str
Ġp ct
Ġp ub
Ġp Parent
tr ing
de comp
on ed
Ġre cs
Ġf tp
Ġf bh
st ode
st udio
al ternate
Ġ" !
Ġ" :"
Ġn Mem
Ġn pix
Ġn group
Ġn Byte
Ġn New
Ġn vq
le ms
Ġ1 15
tu de
ti ated
ti ls
Ġl to
Ġe ts
Ġe port
Ġe Flash
Ġo value
Ġd cont
Ġv ct
Ġv RB
Ġv aux
Ġv orb
Ġv vn
End point
Ġr fork
mp tr
ĠN egotiate
Ġt read
Ġm lu
Ġm stat
IN CAPABLE
len Alloc
Ġint ent
Ġa ir
un written
err c
Ġh alg
ĠS R
ĠS hdr
Ġps g
li ct
ĠM a
ĠM sg
ĠM ONG
ĠM AY
Ġx chg
ĠP O
ĠC ode
ĠC PL
ĠR ota
Ġw tap
ri tical
LE Q
Ġne tal
Ġne toff
ree ment
if a
00 000
Ġj oin
and i
ate way
ĠB IN
ĠG reen
Ġst b
Ġarg t
ir PD
ĠF M
ĠF AT
ĠF lip
ĠF LUSH
ver ti
mb o
AD OB
ĠL ut
ex thdrlen
Ġop timize
Ġto uch
UN SPEC
UN SERIALIZE
Ġnum Files
Ġdev info
add ip
CT TY
ĠW DM
Ġip ort
bo ot
bo unded
Ġmem cg
io mmu
ĠU ser
Ġname Len
sp y
Ġuint ptr
ord ivpow
ac ipher
Ġis null
ĠH WSIM
ext ernal
Ġget str
Ġreg val
Ġsc seq
Ġfi leno
11 01
msg hdr
AG ER
Ġbit set
Ġframe type
pp ort
parse d
Ġsp ort
NE ST
NE IGH
Ġ6 1
NUM ERIC
mem open
Ġac cumulator
char p
Data Op
ph otometric
Ġold v
Ġ7 2
off load
sub system
Ġsy sex
ĠX WD
Ġcode word
Ġport s
Ġsub maps
mar p
Pro files
Ġ32 76
Ġblock stode
ĠZ F
hash size
Fa ctor
pack ed
dc m
Ġno mem
xp rt
xp mtu
Ġskip ped
Ġplane Size
Ġsz Path
invalid ate
Ġtemp Width
su sp
su bject
Ġor g
Ġfail s
tx n
Ġlock dep
Ġtrans form
Ġroot name
Ġpix Write
ĠTIFF Read
MD T
go lomb
http s
PRE AUTH
Ġpkt len
token only
ĠpS esInfo
Ġbs l
Ġadd end
Ġus leep
Ġapp Data
target s
Ġcs v
IM R
os Drive
ECT IVE
ĠMax GIF
Ġsd vp
Ġcred it
28 5
Ġqu ality
Ġlink type
Ġge teuid
spec ify
Ġscan ned
irt y
DEF LATE
DEF ECTIVE
Ġar r
Ġar nr
RT S
Ġsec d
cl np
cred entials
BE MAP
INIT IAL
22 92
Ġxml Fatal
principal name
ARG U
PARSE OPT
EVENT S
NEW USER
Ġat marp
comple ted
Ġnon block
CIP H
Ġdh cp
ĠUstr n
gener ated
gener ators
Ġsection stats
Ġnh len
ĠSY NC
ĠSY SCALL
Ġdm buf
ĠSTR LEN
Bits PerPixel
TRANS FILE
Ġdup s
LEVE LS
GEN ERAL
Ġrpm files
ĠLE D
RSA SSA
CU BEMAP
Ġremove flags
Ġkw defaults
Ġdeno ise
St orage
Ġchange d
upper dir
Ġgener ate
NOTI FICATION
Last ImageFromList
REGISTER S
authentic ate
ELE MS
JO URNAL
TEMP LATE
equal to
Ġplugin s
With Lock
sma rt
reorder ing
Ġqn bytes
ĠBuffer Offset
Ġdyld i
ĠTG AR
flo ordivpow
writ ers
DST OPTS
Ġweb Socket
istr ation
negoti ated
Ġdisp lacement
Bu ilt
Ġcomb ined
ĠCAF Channel
hole s
NEWN ET
ĠDoGetFile Position
MODI FY
BID DEN
UC V
SUBSC RIB
ĠnD osDrive
CAPAB ILITY
fac ility
ĠCLO SE
Tiles IntoBuffer
Fail ure
ĠRemove LastImageFromList
xSection Val
INTERRUP TI
IDENTI FIER
TIT LE
pwn am
Ġair spy
ĠMONG O
ĠRota teImage
irPD cap
ADOB E
Ġblockstode code
ĠxmlFatal Err
ĠnDosDrive No
0 11
> **
B and
C RA
D HE
G if
M K
M DI
P ic
R IX
T x
V L
V O
` '
b pp
b wrap
c losing
d v
f ps
i ance
l ugin
l arger
m f
n ational
p n
p ur
s ack
s chema
t find
x fb
z bin
Ġ ALIGN
Ġi dev
Ġs ony
re nder
an onymous
Ġc addr
Ġp ow
Ġp Col
Ġp Json
Ġre load
Ġre quire
or dered
Ġf out
te t
Ġin state
Ġu mode
Ġu ipc
Ġ1 14
Ġe cd
Ġe lif
Ġd get
Ġv si
Ġv step
Ġr i
Ġg num
Ġg pointer
Ġt wo
Ġstr nc
Ġm time
Ġm db
IN FIN
co p
un wrap
un impl
ig its
ch or
ch mod
Ġh s
Ġh In
Ġh step
Ġh limit
Ġh cd
ĠS h
Ġde mux
ĠE TIME
ĠM E
Ġk obj
Ġk au
end er
AL AR
ST ALE
Ġx lab
Ġx asprintf
ĠP INC
Ġw e
Ġw buf
Ġw eight
Ġw char
ĠT a
ĠT ime
Ġne igh
Ġ' `'
ERR QUEUE
Ġq true
Ġdata blob
pr v
pr od
Ġex act
ĠB it
ĠB order
sk ew
ĠG W
la zy
sg l
Ġst kp
per pixel
per net
oc tet
NO SUID
sh adow
read write
Ġnum id
dev name
CH AIN
add str
FI BER
FI LENAME
TI LE
Ġsh hwtstamps
Ġsock fd
qu ency
Ġpro bs
Ġz one
Ġlo ctype
di vpow
DI M
\' >"
Ġle pt
ĠK ey
tra f
Co lour
Ġread Value
Ġread only
ĠGet Authentic
Ġpc rypt
ĠTh read
Ġuser id
comp ound
EXT ERNAL
String To
ĠRE F
Ġref cnt
FO RE
ĠJ O
Ġ12 9
sub tract
Ġmap ped
ren try
ĠZ STR
au dit
ĠSetPixel RG
UP D
READ ONLY
IB AR
Ġmo of
space s
ĠINT R
abl ity
ĠTI ME
ĠDestroy LayerInfo
auth or
MAT RIX
raw Info
Pa irs
FOR BIDDEN
trans late
24 1
NOT AVAIL
Ġsa pi
Ġlocal pal
ĠpS csi
Ġexp ansion
Ġus m
Ġcan tfind
zero es
Ġsqlite Hash
.. .<
EC DSA
TER MIN
control s
change s
Ġrx rpc
AUTH OR
ĠBU FF
Ġreply opts
Ġan chor
BUFFER S
wait ing
ĠRT N
Ġsum len
ĠUN IT
Ġxml Parse
Ġxml Node
avail ablity
PASS WORD
div ide
Ġmethod s
ĠAL LOW
94 9
cont inu
ANY CHAR
Ġthe irs
mag nitude
Copy right
crea tion
ANCE L
function s
hid den
vector s
ĠMin or
Ġou targ
rsp c
RCV BUF
ĠAppendImage Format
ceil divpow
IFL NK
itu te
Ġud pport
ĠAsync For
Ġmay be
ĠPC IBAR
man agement
Ġlines ToRead
pas sth
Ġconsu med
Ġplot style
arb on
Ġwatch dog
ĠMK TAG
Layout Tag
imple mented
Ġencrypt ing
deleg ation
ĠECONN RESET
Ġgreq s
ĠPID TYPE
OVERR UN
ĠEADDR NOTAVAIL
wrm sr
ĠDA EMON
Arch ive
Au to
PMTU DISC
ĠFIL TER
Ġpmtu disc
Dy namic
Challenge Response
ĠpJson Ctxt
Ġecd h
Ġstrnc at
ĠGetAuthentic IndexQueue
ĠSetPixelRG BO
- #%
3 11
; %
B order
C en
C MAP
E LS
E CHO
F unc
G SS
G CM
M U
M FB
M ount
N e
N FS
N BYTE
N MI
P LA
P riv
R ule
S el
S ING
S LOT
T GS
U F
X F
X SAVE
Y Y
b cache
d j
d ummy
e cho
f put
g reen
j iffies
k vp
l m
n io
n nz
p b
p bs
p ret
p discard
r fd
s im
u max
w file
w wn
x digit
z lib
} ,<
Ġ and
Ġ LOW
Ġi C
Ġs th
Ġs pattern
Ġs User
Ġc val
Ġc now
Ġc Cipher
Ġp q
Ġp ta
Ġp al
Ġp end
tr al
tr ibution
Ġre order
Ġre open
Ġb fd
Ġf raction
al ways
te e
te x
Ġin val
ar is
ar ly
ad get
Ġ1 44
Ġ1 13
Ġl g
Ġl vl
Ġl apic
Ġe ax
to string
Ġv str
Ġr aster
ĠN Z
ĠN ull
ĠN EXTHDR
co mb
co lour
Ġa ti
Ġa buf
Ġa Mode
Ġa tm
Ġa ffine
un bounded
ig ade
err msg
fo ps
ER TY
Ġh uff
Ġh ev
ĠS top
Ġch apter
Ġch oice
Ġch art
Ġps Fw
ĠE IN
ĠE fault
ĠE OL
ĠE FS
RE MOUNT
RE MOVE
ĠM C
Ġk buf
OR PH
Ġlen s
str ow
AL EN
ST AG
ĠP ICT
ĠC ALL
Ġw ps
ul ating
Ġpa use
SE P
Ġex pose
ĠG lob
op endata
Ġyy destruct
sta tion
per ms
Ġend of
mb da
ĠD ONT
Ġres v
Ġnew Name
ne ighbor
ra ster
oc al
Ġtmp buffer
Blob Bytes
Ġop wfile
UN LOCK
Ġlength table
ĠW ith
Ġip mi
Ġip fix
ĠV C
Ġkey id
ter Resolution
key frame
ĠEX R
FI FO
Ġname sp
sp nego
ub e
Ġsh arpness
Ġvp it
Ġopt str
Ġpro perties
Ġz Err
am era
ĠH B
ĠH AND
time terResolution
Ġpar ms
Ġass ign
DI CT
Ġfa ad
ED IT
Ġsrc buff
Ġrow block
ĠAV COL
ĠAV DISCARD
ĠO Z
Ġbit stream
Ġread result
ĠGet Byte
Ġ5 1
Ġset flag
lv s
Ġser ve
db stmt
RO UP
Ġvm ull
ĠENO DATA
TO S
File system
ange s
Ġreq info
load ing
Ġgen cp
Ġdi rect
LAB LE
Ġdo ff
Ġinter leaving
FO REACH
Ġport status
Ġhandle Flags
CP rofile
vp id
copy ing
GP S
KEY WORD
Ġdest reg
Ġsi lent
main Name
Ġ10 1
PI M
Ġ25 0
Ġdis co
Ġtotal len
Ġtrans parent
Ġpix g
Ġpix im
Ġrec ipient
BO T
seg no
src u
Ġxfs r
Ġsig lock
Ġsig bus
match es
Ġsocket s
Par ameters
Ġssl conn
Ġgr info
En coded
IV L
ĠAR POP
Ġfc n
Ġreal ms
Ġlink s
Se cond
card BlobBytes
track ed
34 5
Ġblk g
nex us
Ġpin data
bc d
com ma
ĠCHECK OVERFLOW
he vc
iss ue
non ref
ĠMIN IMAL
cons istent
LAY OUT
No v
ĠNO TIFY
PASS SEC
PASS CRED
BACK REF
none wsk
Ġtg s
OS AL
ĠAL DRIVER
ĠEXIF Multiple
BL IC
Desc s
Ġvq rsh
THREAD S
PROP ERTY
route s
Ġll cp
Link edList
could n
ĠEnd Document
UnableTo Create
ev t
Ġrece iving
Ġmech buf
Ġdim ension
bor Ctxt
ĠWrite Bytes
Ġpan a
ĠBYTE SWAP
unpack hi
Ġfiber s
ĠWB CT
Trans form
ĠpC borCtxt
Ġla strow
Qu ick
Ġdcb x
Ġlower path
Ġexpi ration
Load ing
NP TYPE
Track er
ĠHID IOC
Ġdig its
Ġhugetlb fs
ĠReadProperty Byte
ĠAss ert
Obj M
allo ced
lat ency
Digest s
ĠDis cardBlobBytes
Ag reement
Down mix
Acc um
Ġcn tr
ĠBegin Document
Ġsinfo s
ĠPRINT F
Ġste ps
Contig TilesIntoBuffer
att en
ĠCheck Number
Ġird a
Ġdetail s
ĠContext ID
ĠEMUL ATION
Register Test
----- \\
Ġsynchron ize
tt Sn
Mal formed
ALPH A
ĠSetStringInfo Length
Ġvml al
ĠPixelsPer Cen
malt WithLock
MTR R
Tim ings
ĠFlip Image
ĠUstrn cmp
INTERRUPTI BLE
passth rough
ĠsUser DebugState
ĠNull S
ĠaMode Timings
ĠpsFw Info
ORPH AN
ĠGlob Expression
Ġsrcbuff s
Ġvqrsh rn
ĠPixelsPerCen timeterResolution
) !
) )"
, [
5 77
6 74
A FF
B F
C G
F rag
F REQU
G lobal
H EX
H ML
N or
T ar
T WO
W eight
W ASM
X DIGIT
b mc
c xt
c map
c rc
e moji
f addr
g le
i timer
i gest
n toh
p len
p lace
p mtu
r ad
r shift
s v
s upp
s alt
t RegisterTest
v addr
v dev
v net
v lc
} \\
Ġi rc
Ġi scan
Ġs ret
Ġs Parse
re quire
Ġc di
Ġc db
Ġc enter
in stall
Ġp flags
Ġif req
se al
on gest
ma cp
Ġf dopen
rt o
Ġ" *<
Ġn blocks
ad st
le t
le y
Ġ1 17
tu red
ti rq
Ġl ag
Ġe Mode
to l
Ġr ss
lo pe
lo ok
th ers
Ġt or
Ġt ly
Ġt gid
IN F
co unted
Ġa of
Ġa hash
ch assis
Ġh our
Ġh na
Ġh ello
ĠS Q
ĠS EN
ĠS TO
ĠS EV
Ġch mod
info s
RE MENT
dr ive
ĠM Q
ĠM ALLOC
ur st
ĠP h
is o
DE LT
Ġq dev
Ġq iov
AC Y
ate gy
OP ENSSL
ĠG Str
TR AIL
Ġen force
Ġen ergy
Ġst co
Ġnew str
Ġnew name
ra m
Ġcol lection
NO EXEC
UN INITIALIZED
In st
ĠMagick PixelPacket
reg istered
Ġtype s
def late
ĠU P
ĠU tRegisterTest
Ġsock len
EX CH
Ġpro f
Ġfile Entry
Ġis alnum
ĠH AS
ĠH CI
Ġreg no
time ofday
em ulated
Ġmax size
ĠK EEP
ĠAV Packet
ĠGF ile
us ive
MO TION
IO D
UR CC
Ġlog in
Ġlog log
Ġbytes Per
index es
File Entry
new line
VER SE
Con f
Con tainer
HE IGHT
Ġlast link
GET ARG
sub scribe
ĠX SLT
Ġdp b
Ġport BYTE
Un pack
Ġsub tract
Ġbase dir
mask s
param hdr
Ġmp eg
UP CAST
ie ve
var p
Ġvar iance
Ġloc ator
REG EXP
Set Event
Ġbest s
Ġbest mse
STAT IC
Ġ25 4
Ġms f
Ġdis connected
Ġlock ed
SR GB
ERN AME
Ġpix Get
Ġhead end
BO OST
DC CP
PRE SENT
Ġdevice Origin
Ġpart word
Ġrfb Close
Ġsend buf
Ġstring New
Ġus vc
CB CR
sign o
local part
INC REMENT
Ġresp len
ea rt
Ġqu it
client data
short form
Ġseq no
CL USTER
Ġsu ite
SUB EXP
PU BLIC
fp f
ak ley
Ġan gle
SN AP
SN PA
Ġsec comp
Ġterm ios
Ġobject s
SHA PE
auto cmds
Ġsel Flags
Ġkeyword s
wh o
55 2
Ġstack size
TRAN SPA
OBJECT ID
ĠCOMP OUND
ĠCopy MagickMemory
Ġcg fs
Bit Mask
ĠNOT MIME
std err
prec incts
INDEX ED
ĠosStr tok
oper and
ĠCUR RENT
PLANE S
exist ing
ĠTIFFError Ext
accept ing
Ġdelay ed
HOST NAME
Rect angle
Ġlld p
BT A
BT REE
Ġlogical Block
Ġou h
Ġether type
Ġber val
DEL ALLOC
Ġexpi ry
DENO IS
calc ulating
Ġword s
ĠSEC URE
SPECI FIED
ĠSub st
Ġweb view
WO ULD
Gra phics
Ġplot title
Ġextended FileEntry
Meta data
ĠDFF FileHeader
sched ule
deci mal
SCHED ULE
retrans mits
Ġroll ing
Worker Data
ĠMy mr
Ġsof tirq
Ġlicense Stream
Skip ping
ĠREC ORD
GRAPH ICS
macp hy
ĠGStr v
ĠrfbClose Client
TRANSPA RENT
$ |
( [
) (
) .\\
- \\\\
> ]"
A VAL
B tree
C INEMA
D irty
G TK
H ome
I AS
K F
L IF
M y
M ag
M BYTE
N eg
R DESC
S b
S cheme
S ony
S tur
T ight
T SC
U CS
V endor
X OR
X tiles
Y tiles
Y CBCR
a e
a ched
f it
g op
g ive
h at
h mi
k control
m req
n i
p fc
s Nov
u short
u tral
w ise
} ?"
Ġi tostr
Ġs alg
Ġs Rdm
re x
re tr
re map
an on
Ġc ast
Ġc sock
Ġc ee
en ta
ta r
Ġp bs
Ġp rcv
Ġp instance
Ġp Table
Ġp Db
on es
Ġre covery
or ientation
ge sNov
Ġf tag
Ġf wb
al Capture
al Available
Ġn a
Ġn rep
Ġn pts
ar ams
Ġu buf
Ġu bits
Ġu char
Ġ1 64
tu ser
ug Assign
Ġl buf
Ġl page
Ġl argest
Ġe td
Ġe stablish
Ġe ssence
to s
Ġd ay
Ġd ctl
Ġd Total
Ġd quot
Ġv sock
Ġv dup
Ġr old
ĠN AD
ĠN ew
ĠN HML
Ġt buf
Ġt select
Ġt nl
Ġm data
Ġm dev
Ġm Channels
Ġm BytesPer
IN ERRORS
Ġa tof
Ġa Db
un init
ro ved
ag greg
ss ian
Ġimage length
el se
Ġh ist
Ġh desc
Ġh DC
ĠS g
ĠS CM
ĠS RB
ĠS IGN
ĠS UNInfo
uct x
Ġps r
li mb
RE AMS
RE MOTE
ĠM IF
ĠM POL
ĠM peg
ĠM XF
Ġk b
Ġk k
Ġsk pair
Ġlen p
str chr
Ġy label
>% #
Ġx label
Ġx atoi
ĠP IV
ĠC Y
ĠC lear
ĠR BIN
Ġw ave
LE UL
ĠT TY
ĠT able
as io
if desc
Ġj uniper
SE S
Ġdata size
ve lo
ĠB ER
ĠB SLICE
ĠB oundingBox
ĠB cm
Ġ4 1
Ġvo ice
Ġyy alloc
Ġyy new
Ġyy overflow
Ġme mb
sc at
ver ity
ver bs
Ġnew len
Ġnew path
ne k
ne tif
Ġ3 7
ĠL CS
ĠL RU
Ġtmp Name
read ahead
Ġnum Unpack
Ġnum Xtiles
Ġnum Ytiles
Ġcm sb
block ed
Ġcp c
Ġcp uctx
SS tring
ĠMagick ID
pro vider
ĠRead Image
bo th
ĠU D
ĠU RL
Ġname ptr
sp n
CE AL
ĠReadBlob String
Ġopt ype
Ġpro v
Ġpro log
Ġpro mote
Ġcur ind
Ġrc Source
Ġz strdup
Ġfile Handle
Ġis Str
Ġis xdigit
ĠH T
ĠH RD
ĠH iResBoundingBox
Ġal Capture
AN CHOR
out Addr
di al
Ġpr vp
Type IsNotSupported
CON CEAL
\' :<
Ġsb p
ĠK EX
Ġcmd Size
ĠAV Stream
Ġfi bsize
Ġlong index
tra fo
Ġmi i
max len
MAX LEN
Ġbit len
Co m
Ġdefault input
ĠGet Delegate
Ġ5 07
blk bits
SH IP
page size
VP ORT
MEM NUM
Ġbytes PerPixel
ec c
Ġreq body
ĠYY ERROR
ĠYY EOF
Ġold val
Ġdi ssim
ĠRE PORT
ĠRE LEASE
Ġref counted
Ġsun addr
ĠJ SString
ĠDe frag
Ġenc aps
ay erInfo
Ġfd put
Ġfd num
Ġport number
cs wp
Ġrt n
Ġtile s
vp d
vp x
Pro perties
Ġup m
Ġih p
iff Info
part s
PF C
SY SENT
Ġpe gas
Ġfrag mented
open ed
WR M
Ġtc m
scan line
Ġimg bits
first byte
auth pending
SER IOUS
Ġnode id
ĠCH UNK
Ġsin f
Ġpix s
FOR MED
Ġbyte cnt
BO OK
Ġpeer HelloMessage
Ġparse req
class ify
Ġtcp h
Ġmm timer
Ġsg i
Ġpart Info
Ġoutput len
Res olve
Alloc Size
Ġapp id
br id
25 5
Ġpg map
Ġdir Entry
si red
ADDR S
ĠMax AllocSize
Ġpk blob
Ġatomic io
STRING L
change profile
Ġcommon len
Ġlink name
CC IT
CC LASS
Ġsu d
Ġuv d
Per Frame
Ġan ti
Ġev b
cl asses
sys fs
Key s
Key board
Ġblk if
Ġtl x
Ġnl pid
Ġai ocb
Ġdc id
ĠSize Of
Ġpin et
ĠWavpack Set
ĠWavpack Context
Reg ion
Ġudf Len
EL F
Ġconne cted
mc id
ĠSIG PIPE
No ise
Ġos SetEvent
tm r
ĠRe turn
Ġresponse Handler
Ġxdr s
NODE S
Ġyyss a
cr ash
zip list
ĠStream Tcp
Ġlabel fd
Ġloop max
Ġthread s
PIC S
ENC INT
PL ICIT
ere vent
crea ting
Ġll int
ĠPRO T
rout ing
ĠHandle TextChat
Ġfit Page
Output Code
MAL FORMED
ĠPage Media
ĠPage BoundingBox
ĠNo Interlace
Ġsector s
57 76
ĠPF ETCH
Ġmgmt d
Process Color
Process Colors
ĠClone String
Ġrestrict flags
ĠFrame WorkerData
INSUFFICIENT DATA
BP LIST
slave s
Load er
POST PROC
ĠJPEG Compression
Ġder ived
final ize
ĠPer cep
%*[%, ]"
Custom Colors
we ighted
Spec ified
ĠInter pret
Ġonig enc
DELAY ED
Ġcseq num
Ġcseq met
Ġplain text
ĠDocument Media
Ġnor mal
Background Track
DELI M
OPER AND
ĠCur ves
ĠGIF OutputCode
pot Color
mig rate
mig ration
Ġscal ing
ĠOUT CHAR
Pass word
ĠuiGPIO Mask
Ġfold er
ĠpP ragma
alDoppler Factor
Tick et
Ġsuf x
ĠBuff Size
CONFI RM
kw onlyargs
Ġxcf data
RELOC ATE
Ġnod igest
ĠPE ER
MEMBER SHIP
xdr s
Io Control
ĠSvc Internal
CRAW LER
Ġprch ind
otoshop Profile
IW USR
ĠCode book
SUBSCRIB E
ĠETIME DOUT
itute String
ĠEFS CORRUPTED
ĠPh otoshopProfile
ĠSubst ituteString
Stur gesNov
ĠsRdm Buffer
Ġprcv ind
Ġdctl printk
ĠdTotal Weight
ĠmChannels PerFrame
ĠmBytesPer Packet
ĠPIV OT
ĠRBIN INFO
Ġyynew state
ĠnumUnpack Streams
Ġcmsb io
ĠisStr Field
ĠalCapture Device
Ġdefaultinput device
SYSENT ER
Ġpegas us
ĠpeerHelloMessage Data
ĠInterpret Image
SturgesNov ak
0 16
B IO
C nt
C ANCEL
C asio
D NS
E FLAG
F ill
G UID
H A
M an
M utex
N H
N SEC
P V
S LE
S sl
T ree
U D
U TION
V is
] .
b m
b fd
c as
c cp
d warf
f ul
g uess
k on
k it
m nemonic
p M
r limit
v fs
v olume
y et
Ġi log
Ġs match
re le
re la
re tch
an ame
Ġc w
Ġc time
bl y
bl im
in side
Ġp In
de mux
Ġre wind
Ġre actor
Ġf write
Ġf uji
st rea
Ġ" |
Ġn ick
Ġn ak
Ġin direct
Ġin vert
Ġu mem
Ġ1 18
me mo
iz ing
Ġo utex
Ġd file
th at
th row
id ate
Ġg imp
Ġg varp
Ġm blim
Ġa size
Ġimage width
Ġh D
Ġh a
Ġh m
Ġh ns
Ġh ow
ĠS P
ed y
Ġde lete
Ġde tach
Ġps d
ĠM PR
ĠM FR
Ġk g
Ġk s
pa ct
AL TR
ign um
ST OM
ST ORAGE
ĠP re
ĠP op
ĠP redictorState
Ġw cs
DE TE
ul ative
ĠT cp
ĠT WO
IT IES
if lib
ĠA RES
ĠA PIC
Ġj it
Ġq emu
AC ITY
no toi
Ġex c
Ġ4 7
ĠG RP
TR AP
buf size
AR ING
WE D
ir atio
ĠD IR
Ġnew Data
Image Compression
oc all
Ġ3 9
AD J
AD R
rc s
MA STER
UN SUP
read dir
ĠW LAN
Ġtr ow
Ġobj p
Ġmem o
Ġmem dup
key id
Ġav format
cur ve
Ġpro ps
ĠPy Memo
fi re
Ġz Path
res idual
user id
DI E
Ġstate id
ED Y
alloc ator
Ġbuffer offset
msg id
Ġlong info
Ġas d
tra il
ĠO ffset
ĠO SR
Co verage
Ġdefault s
Ġpixel size
SH ARING
Str uct
Str ucture
Ġset sockopt
ĠSet Quantum
Ġsp f
dis cover
rec width
VP X
Re move
fd t
av ig
Ġad apt
Ġ7 4
Ġ12 6
Ġenc JoinAccept
inc rea
Un compressed
net screen
OK ED
Ġtile width
Ġdouble info
Ġmp ls
Ġmnt put
Ġ10 5
Ġbest mv
sum mary
FILE S
01 00
eff ect
Ġfl ash
struct or
Ġstrn icmp
ĠCH DLC
update d
LINE S
Ġoper ation
Ġim r
seg feature
>\' <
Pack age
Ġcap off
Ġadd resses
Ġrfb GI
>[ -
CAP ACITY
Ġrp mp
Ġcb Size
war ded
CL NT
Ġfil tered
ĠSta te
fail s
ĠLog Error
Ġng iflib
Log in
Ġcall er
Ġdat aname
CONST ANT
Ġglobal val
CHAR S
resp ond
PK I
ĠRT CF
push lstring
ĠSIG KILL
Ġbr ightness
UNI CODE
ĠPixel Channels
Ġiv len
ĠNE AREST
multi p
Ġuc ma
Time stamp
segment s
service s
For m
Th read
lim its
Ġpir lvls
prog name
FILTER S
Ġhard irq
Ġbu fo
COR K
DEN IED
Di rect
ĠPRO FIL
Var iable
CU STOM
fil p
Ġnump rcs
resource s
ĠStringTo Long
Ġether addr
Ġsv f
Ġnlmsg hdr
Ġgre edy
vol atile
ĠUp date
ĠSample Rate
Rece ive
ĠSub Format
Ġvfs mount
MAY BE
CONSTRA INT
ĠGetStringInfo Length
rel ts
ĠLZ X
Unrecognized ImageCompression
RESOL UTION
Date Time
Ġste re
Clear Bit
memb er
Ġhome dir
Ġscal ed
ĠQu ad
overlay fs
Ġinfl ate
RCVTSTAMP NS
GRE EDY
ĠVdbe Coverage
TOOL ONG
Prev ious
ALGOR ITH
Ġsla pi
Ġyes notoi
Ġinsert pos
ire less
ĠUNIX CB
Ġtopic Name
Qual ity
ALLO WED
ĠTr ans
continu ation
ĠMQ TT
DENOIS ING
Ġpsr ch
CONCEAL MENT
Ġoutex cept
ĠNEAREST MV
) {
B OR
B ORDER
B VID
D TR
D oc
D AN
E IE
E BUFS
F ix
G ATE
G WIN
G OLDEN
I Z
M k
M on
M SS
N FC
O LEN
R en
R AR
R LIMIT
S lot
S AND
S ending
V C
Y K
` "
a th
b ust
b abc
c ar
d t
e ol
e fe
f wd
g adget
h lim
j a
l led
m ic
m ips
n ad
n toa
o se
r ary
s ap
s ib
s lope
t pip
u fo
v ot
w k
w rt
w fd
x or
x fe
Ġ DECODE
Ġi arg
Ġi at
Ġi hdr
Ġs index
Ġs pawn
re h
re code
Ġc str
Ġc fi
Ġc state
Ġc idx
Ġc FY
Ġc ube
er arch
en r
en sure
in dependent
Ġp resent
Ġp NC
Ġp unch
Ġp ptp
Ġre serv
Ġf op
st os
rt t
Ġn path
Ġn tree
Ġn ents
Ġn uma
Ġin box
Ġ1 12
Ġ1 10
Ġ1 0000000
ti ties
Ġl num
Ġl ittle
Ġe strdup
Ġo si
to obig
Ġv no
Ġv irtual
ff s
lo ut
th rottle
ĠN ID
Ġreturn Single
Ġt queue
Ġt packet
Ġt ja
Ġstr index
Ġm td
IN K
IN CR
co okies
Ġa head
un read
ag ate
Ġh o
Ġh name
Ġh ctx
Ġh start
pe x
ĠS LA
Ġch root
Ġde structor
Ġps tr
ĠE OB
ĠE FER
RE L
ĠM AP
ĠM API
Ġk gid
str v
str tod
pa use
Ġerr detail
ON D
AL GO
Ġx offset
ĠP FA
ĠP ostscript
ĠC ARD
DE NT
ri png
ĠT M
ĠA N
ĠA S
Ġj unk
addr info
Ġdata flag
no privs
Ġout d
ĠB HDR
type ver
ip set
Ġyy table
SI BLE
ĠF IT
ĠD own
Ġnew ptr
Ġnew range
Image File
Ġcol r
NO TH
NO MEMORY
ĠL ong
ĠL ink
ĠL UA
rc vc
Ġtmp bits
Ġtmp asm
UN SPECIFIED
In Mbs
ID e
EN TRIES
Ġdev m
CH AS
CH IP
CO AP
Ġti leno
for bidden
key code
reg ular
Ġid sp
Ġz log
Ġfile list
Ġfile format
Ġis ofs
Ġwh ence
ĠH Text
Ġal iases
res ync
AS SIGN
user fault
Ġsc id
Ġline start
Ġline cnt
Ġun initialized
Ġmax Len
mi se
low at
Ġfree map
Ġcomp are
Ġcomp uted
\\" )<
Ġle d
ĠK M
AP PEND
AP DU
start ed
start up
be at
Ġmi idata
stream local
pp p
pp md
SET DESC
inter active
Ġ5 11
SH LEN
md io
UR ATION
rec ent
Ġio a
TO T
bs z
ĠYY SIZE
LI CE
Con trib
ĠRE SET
ĠRE SP
Ġref no
STR IP
Ġattr ib
tmp fs
sub dir
sub sys
DATA DECODE
Ġmap s
Ġmap index
Ġrs v
Ġrs printf
Ġrt nl
net s
Ġsub system
ll c
Pro c
Ġblock typ
Ġmessage s
SY SCALL
Short Pixel
pass ive
ms f
ĠMSG TYPE
LD TR
back wards
Color Map
cb r
Ġseg feature
Ġgreen Max
Ġhead room
IR USR
Ġim In
OUT E
leg end
Ġlay ers
class data
tial ias
PRE CI
Ġep oll
abc def
WA KE
Ġpart s
ĠIN DIRECT
rest len
Ġrb p
Ġca pacity
Ġalloc a
Ġff url
EC N
ĠRes ub
ĠAR CH
ea k
long mode
war m
rcv lowat
Ġbad cmd
Ġlua H
Ġalg t
cl rspc
Ġcompression Type
Ġbuff erevent
RP L
BE L
fl c
Ġpin o
HO D
WAIT ALL
Ġudf Name
real time
Ġbc d
REC VP
VAR SIZE
push number
ĠSIG BUS
ĠSIG SEGV
Ġhid dev
payload left
ĠSE CTION
exp ression
Ġgd Free
RC X
Ġic y
Ġtg cred
Ġwork dir
Ġloop End
xy z
ĠSe lect
krb tgt
35 2
Bit Map
FC TR
TK T
MATCH ED
chan is
TOKEN ER
ĠIO CB
Ġresolution s
sasl cookie
Ġesil str
replace ment
ORDER ED
Dis card
Ġstrto ll
Input Output
COR UPT
STRU CTION
ĠPRO C
FOUND ER
ĠBO OT
MET A
CONF ED
Ġmon itor
ĠList Device
Ġvolume Type
ĠValidate InputOutput
authentic ated
ĠVAR BIT
TU BE
ITH READ
ELE MENT
cli ps
ĠER ANGE
abbb b
Ġdma addr
Qu ote
Ġquote str
Ġrf v
ulk Buffer
ĠRBin D
Queue Item
Ġfsm Mk
Attribute s
bro ken
Origin ator
ĠRX RPC
Async For
Async FunctionDef
ĠpB ulkBuffer
Ġcomple tion
Ġvol atile
ĠDis able
ĠLONG SEEK
Ġpref erred
ĠPush ShortPixel
GL ING
Ġppp ol
Pr oduct
SOL ICIT
Background Color
ĠPlane Interlace
MULT ITHREAD
NEWN S
deno iser
ĠpD LS
Ġrtl priv
ĠQu ery
ExifMnoteData Fuji
,= ,
CHRO MA
ĠExt ension
Ġspan info
ĠWriteBlob Byte
ĠUnpack Raster
ĠColor Space
ĠJs Var
ĠMET HOD
Cb Cr
ĠBlob To
AGGREG ATOR
HOR Z
ĠDev Info
Led State
MULTIP LE
LING ER
>** *\\
Band width
Pic ture
Ġendof headers
ObjM RTreeData
ttSn Client
MTRR fix
strea med
DAN GLING
SAND BOX
ĠcFY I
erarch y
Ġntree s
Ġhstart col
ĠSLA PI
ĠPostscript Level
rcvc trl
CHAS SIS
SETDESC FIELD
Ġpreferred Encoding
( /
) ."
5 34
A BEL
C AL
D D
D RAW
E Attr
E dit
F W
F CS
H ook
J ump
P ING
P ush
Q S
U sed
U ART
U UID
U nderflow
W ISE
[ -
] :[%
a i
b rec
d put
d ang
g st
i ri
i iratio
k ref
l ns
l shift
p V
p alet
p keys
p reempt
q l
s blk
s aving
v op
x s
x start
z ma
Ġ tup
Ġi x
Ġi od
Ġi put
Ġi Tab
Ġs ctx
Ġs uid
re init
Ġc rea
Ġc skb
Ġc stack
Ġc mac
Ġc alled
in herit
Ġp ce
Ġp List
Ġp Item
Ġp mysql
Ġif s
Ġif lags
de leted
Ġ0 22
Ġ0 600
Ġre draw
Ġb g
Ġb nd
Ġb utton
Ġf x
Ġf re
Ġf sync
Ġf adst
st ant
Ġn data
Ġn Data
Ġin stream
Ġ1 19
ti ff
me tic
Ġl inux
Ġe qual
Ġe bh
Ġo gg
Ġd ll
Ġv op
Ġv br
Ġr sk
ĠN SC
id p
Ġg ain
Ġt mask
Ġstr ict
Ġm Format
Ġm ux
it self
IN STRUCTION
co me
len EAttr
ase t
Ġa rea
Ġa ut
Ġa ead
un defined
un icode
un conditional
ER S
ata log
ch oice
Ġco s
el ap
Ġh it
ĠS I
ĠS ec
int s
ed itor
Ġde blocking
Ġde grade
ĠE xp
Ġ2 000
Ġlen stack
end s
32 3
32 6
Ġx ar
Ġx errno
Ġx strdup
AT M
ĠC LOCK
ĠR ING
ĠR iff
ĠR Core
ri p
LE AF
ĠI H
con struct
if num
pr k
OP TIM
Ġfor m
ĠG ot
la tion
16 1
Ġen gine
ĠF ull
ĠF ALLOC
ĠF INI
sta dd
per mu
Ġnew file
oc lns
ĠL ABEL
try lock
Ġto lower
UN E
Ġnum len
bit depth
Ġcp n
ĠRead Rectangle
Ġkey type
Ġdst l
ĠEX PR
BU TT
one g
qu are
Ġid ents
Ġz malloc
Ġptr s
Ġis upper
Ġis oclns
vent s
res uid
Ġget string
Ġline ar
Ġline rest
Ex tra
Ġun conditional
CON STRUCT
CON CAT
ide bug
ts n
ts flags
state id
ok og
alloc ating
ĠO FP
Ġbit size
SU ME
mv p
Ġ5 21
ĠY UV
dis connected
Ġpage p
Ġ6 5
RO SS
Ġio mmu
IS OFS
af num
ca uth
qui et
De sktop
Ġbe stadd
seq no
Ġcopy fd
ĠJ QS
Ġtp g
tmp file
CM YK
ĠIP CB
Ġsub section
CP TYPE
Ġbase Path
SP ER
SP ORT
Ġmp ol
Ġdec rypted
color space
uid gid
ep s
Ġbl end
DO S
Ġfrag len
Ġtest case
LD X
abl ing
ĠAcquire UniqueFileResource
SER IAL
END POINT
Ġtrunc ate
send ing
Ġbyte sto
PRE V
sa ic
Ġoutput s
disp buf
Ġrfb TextChat
AU X
Alloc ated
ĠSC ALAR
proto s
CB R
Ġes d
si ge
INC REF
eg ment
by pass
Ġge topt
Ġsu bj
Ġfil tuser
Ġscan ner
Ġopen ed
Ġcall sign
Write File
Ġblk cipher
BE ST
Ġbi Compression
ĠMY NAM
ĠWavpack Config
Ġsr vr
VAR I
Ġtop Dir
-- %
55 5
SD MA
cr wd
Ġpair ing
policy reference
ĠNET SNMP
Check sum
drop ped
SERVER S
Block Szx
Ġrw f
ĠIO buff
Ġlib Path
FIN D
PROP ERTI
oper ator
mon o
Ġbd str
Ġfb dev
Ġcom ma
ĠHandle TRLE
ev en
ĠDIS CE
Ġpol r
fil tered
ZERO OUT
expi res
Exif Data
CLOSE D
bar rier
EXIST S
Mnote Data
SIn fo
Ġasc ent
est imate
310 3
ĠmChunk Type
ĠAsync With
REV OKED
Ġssn map
Ġcanon namelen
ipe s
Ġlr params
ĠClass Def
chk sum
ĠMK DEV
ĠCur rent
******** ********
fre ed
fre quency
Ġlayout s
ĠmChannel LayoutTag
Ġvis ible
Net work
EXPI RE
Hid den
Abort ing
ĠIPSEC DOI
ĠExif MnoteData
Ġuts name
ĠRed Quantum
SEN SE
ĠED GE
ĠCURL code
stric ted
TOU CH
ĠHandleZ RLE
ADAP TER
DSL R
Frag ment
Neg ative
velo ped
ĠURL Context
ĠWavpackSet Configuration
Man agement
SLE EP
ALGORITH M
reh ension
ĠBlobTo StringInfo
Underflow s
dang ling
Ġdll handle
Ġaut oneg
elap sed
ĠRiff ChunkHeader
ĠFINI SH
permu tation
BUTT ON
Ġgetstring time
okog iri
Ġbestadd ress
PROPERTI ES
) ;\\
. |
6 1616
? \\
A ut
A ffine
B V
B IM
C A
C ancel
C alled
D AT
D SS
D ropping
E OL
E lements
F IT
F SHEL
G en
G ot
H B
H TR
H MI
K DF
L ITE
N X
N AT
N agios
N UMA
N CTB
O UNT
P LANAR
Q TYPE
R ATION
R ND
R NG
R SRC
S SI
T F
T ex
T ED
T AB
W X
W asm
W eb
X E
X RO
Z ip
a ir
a io
b mp
c sn
e log
e uid
f u
f prog
g s
g z
g ui
g sid
h ar
h ow
h ba
h eart
i oc
i ke
i lout
k gid
n ls
o auth
p Image
s ge
s ar
t b
v da
v ui
x save
z end
z free
Ġ $
Ġ LOC
Ġ Module
Ġi Limit
Ġs re
Ġs al
Ġs err
Ġs ap
Ġs opt
Ġs cheme
re scale
re cover
re moved
Ġc ass
en tal
Ġp Id
Ġp queue
Ġp Write
Ġp Output
se a
tr o
de int
Ġre moved
Ġb dp
Ġf o
Ġf v
Ġf str
Ġf stat
Ġf warning
st mts
rt ype
Ġn li
Ġn bit
Ġn sp
Ġn time
Ġn ft
Ġn pos
Ġn serv
Ġn keys
Ġn tiles
Ġn join
Ġin Param
Ġu tee
Ġ1 0000
Ġ1 80
Ġ1 99
Ġl Is
Ġe ic
Ġe io
Ġe payload
Ġe arly
Ġo if
Ġo ot
Ġd out
Ġd min
Ġd sea
Ġv blank
Ġr state
Ġr skb
Ġr outer
rn op
Ġg ro
Ġt req
Ġstr ategy
Ġm len
Ġm ig
Ġm fo
Ġm ust
it ers
Ġint serv
Ġint ensity
Ġa mp
Ġa wak
ro gate
ss img
tion s
ch root
Ġco medi
Ġh Profile
ut c
ĠS L
ĠS ms
Ġcon tro
Ġde lim
Ġps tart
Ġps Flash
li er
ĠE Q
ĠE SR
ĠE AF
ĠE IGHT
RE N
Ġ2 28
Ġk len
Ġy t
Ġy posY
ns tart
do i
Ġx hash
Ġx cr
Ġx posY
ĠP String
ĠC E
ĠC md
ĠC reate
ĠC CS
ĠC RM
is n
is or
ĠR MF
Ġma ch
Ġma ckey
ĠI TE
ĠI MAG
IT IVE
up grade
if p
ĠA r
ĠA bove
Ġj oint
at Core
Ġq info
Ġq cd
Ġq boolean
cp reauth
pr une
ve ct
Ġval len
ĠG sm
ĠG tk
ĠG ROUP
Ġyy bm
Ġyy pact
Ġen omem
Ġarg name
Ġarg toi
Ġarg types
code s
ir r
ĠF latpak
per cpu
per son
ĠD river
lob by
Ġres olve
Ġnew tok
Ġnew tcp
ne lements
put back
NO FILE
NO CTTY
AD OW
sh m
sh ut
Ġct fm
MA HTR
Ġop topt
Ġto copy
UN CH
UN USED
read ContigTilesIntoBuffer
In compatible
ap Client
mm c
free desktop
ĠW HITE
CO A
frame p
ĠV olume
pro pos
Ġti oc
Ġti ll
ĠRead Offset
Ġkey code
Ġmem slot
VAL UET
CE ED
EX PLICIT
Ġid bp
Ġ"< <
Ġfile type
Ġfile offset
Ġfile Type
Ġfile Name
Ġfile version
Ġpi vot
buffer ing
ĠH ash
ĠH orizontal
AN NEL
ext size
Ġget num
di rname
Ġun alloc
Ġun mount
Ġun cond
Ġpr g
Type StringTo
Ġext ern
Ġmax buf
Ġmax bytes
Ġmax memory
Ġmax conns
Ġtok type
SL ATE
IP COMP
Ġrow start
UM OUNT
Ġcmd name
AP PID
Ġswitch able
Ġbuffer List
Ġas i
Ġread w
LS H
mv c
mv r
SET ID
inter leave
Ġpc rc
Ġpc mk
SH ADOW
Ġpage vec
rec ipient
Re size
IC C
IC MP
Ġclient name
comp act
IF D
IF ACE
temp orary
Ġdi ro
ĠTR AC
field len
Ġcl s
HDR SIZE
Ġinet d
GET LB
ĠDe fault
ĠDe compression
ĠX list
Sh if
req Id
pec ial
Ġport change
Ġtile size
10 40
Ġmp r
Ġup id
obj ectid
Ġblock len
ĠZ ip
ĠZ LOG
GE S
Ġdest IpAddr
config s
hash bucket
Ġvar arg
pass wd
ONE S
Ġ10 4
AME TOOLONG
Comp ile
Comp atCore
ĠEXT STORE
Char s
back tick
Ġipv s
buff size
Ġnode item
ĠCH ANNEL
ĠSetImage BackgroundColor
Ġpix depth
Ġbyte len
BO ARD
Ġ"/ \\
work s
Ġmv r
Ġhex str
DEV PRIVATE
Ġparse rep
wo uld
Ġmm get
Ġsg l
Ġsa a
ĠIN DIR
Ġsig info
Ġmatch ing
CR L
CR TC
utt ons
Ġus CRTC
PO C
Ġca use
Ġleft most
ĠPR IV
Ġ"- ><
Value Parser
CHAN IND
IM UM
atch ed
local host
Ġcrypto Algo
Ġpk type
Ġpk thdrlen
ĠGetPixel Index
28 7
Ġfc stats
Ġmeta sizes
Num Bytes
Ġrx mit
Ġpass no
Ġmac len
ĠKEY RING
GB L
ĠLIB VNC
Ġpw f
ĠFILE TYPE
Ġbi Red
Ġbi Blue
Ġbi Green
Ġbi Width
Ġneed comma
Ġstats dir
Ġhttp d
Ġback ref
ĠCL Z
Ġui NumBytes
>{ \\
push service
ĠWPG Header
ĠWPG Record
ĠWPG ColorMap
MON ITOR
Ġintf dev
Ver bose
Ġshow somedata
gp lot
Ġgd Get
Ġni keys
GO O
recon struct
Ġlow str
Ġlow est
Ġsubo pt
pre load
ĠSe ction
ALG S
tical Units
Binary Image
wb xml
Row s
alk er
Ġbitmap DC
Ġer rnop
Ġcipher text
Ġcluster size
ces ses
Ġrecord s
NON CE
ĠMYSQL ND
ĠosStr cpy
prog len
MAGIC LEN
MEDI UM
OVER HEAD
Ġxt regs
xab a
xab b
ĠCC V
ĠIs Flash
snap len
ĠParse Absolute
Ġsync fd
Ġzrtp key
Input Device
ĠPACK AGE
ĠLE PT
scal ar
oot Loader
ĠVer ticalUnits
Ġek len
Ġhave Quote
Min or
Ġstrip bytes
MG F
CU IT
fragment s
ĠBUF SIZE
Save BinaryImage
Or Zero
Ġkw arg
Ġkw args
ĠAD DR
Ġgener ators
ĠEV AS
Ġupper dir
expi red
hi j
contain ers
UDP LITE
ĠOut Put
DICTION ARY
TMP DIR
SCAN LINE
xx xx
ENCOD ER
Ġqn keys
UNIT S
ABORT ED
Space Entry
ĠRBin Wasm
aa aa
ĠCA IRO
WRIT ER
ĠTUN SET
ĠLowLeft Y
sur rogate
IMP ORT
ĠpB atch
tool s
ĠName ValueParser
ĠDD PF
Obj RTreeData
71 64
tg a
acce p
Sw itch
Ġpower type
sto red
Do es
arith metic
ĠDst Width
ĠDst Height
Window s
Ġiden tification
Ġplain auth
Make CompatCore
Ġsrb fib
Ġbb version
Ġneg State
ĠInsert Row
CAN ON
RESOL VER
ĠVpx Video
ĠDR V
Ġattrlen field
Rel ax
ĠPT A
Ġtoo short
chro me
Ġhot drop
ĠSIOC DEVPRIVATE
cms Read
defin ition
defin ite
Ġarm or
ĠUnpack WPG
ĠSTD IN
CY GWIN
TRANSIT ED
Dev Aut
ĠLine Contrib
Valu ator
Ġ"{ \\"
indicator s
ĠFlo pImage
EXCLU SIVE
kd cpreauth
RECUR SE
Ġvorb is
ĠMa jorVersion
ĠBIN PRM
NEIGH BOR
ĠTGAR LE
ĠpScsi Req
ĠBUFF ER
ĠMinor Version
Sel f
umax d
Nor mal
Tar get
retr ieve
dial ect
CCIT T
Ġfolder Index
ĠPop Data
multip lier
ĠQuad Part
Ren dered
ĠLong Seek
ĠBOOT STAGE
rcvctrl pipe
Ġcos ine
Negative OrZero
61616 161
FSHEL P
Tex ture
csn p
har ness
heart beat
Ġcass pecial
Ġoot b
Ġstrategy Type
Ġawak en
ĠESR CH
ĠEAF NOSUPPORT
Ġxcr s
ĠITE M
ĠIMAG ING
person ality
propos al
VALUET YPE
ĠHorizontal Units
Ġunalloc SpaceEntry
TypeStringTo Int
ĠDecompression Failed
ĠcryptoAlgo TypeStringToInt
ĠLIBVNC SERVER
ĠWPGColorMap Rec
ĠParseAbsolute Geometry
ĠOutPut Buff
ĠLineContrib Type
NegativeOrZero ImageSize
( )\\
) ..."
, ="
3 000
: \'%
= ("
> ...\\
A FNUM
B e
C red
C leanup
C rypt
C enter
D W
D en
D ASH
D NG
D rawInfo
E ps
F ull
F LD
F irmware
F ocal
G o
G ateway
H S
H ard
H NA
I US
J o
L TYPE
M UTEX
N s
P op
P ost
P resent
R a
R OR
R TR
R MT
R TIMER
S LO
S printf
S PAR
T G
T it
T URE
V I
X vp
Z Z
a verage
b il
c reen
d ns
f ter
f time
g end
g if
h orz
i red
l X
l rd
r ase
s oft
t con
u time
x bf
y start
Ġ ONLY
Ġs vp
Ġs Bl
Ġs tick
re pl
Ġc buf
Ġc ircuit
ta ddr
Ġp time
se e
Ġre tries
st t
st uff
Ġ" $
Ġ" \'
Ġ" ..
te grity
ad ded
ad verti
le ast
Ġu bridge
Ġ1 34
me chanis
Ġl intr
Ġe ip
Ġo h
ct ty
Ġd size
Ġv dp
ff name
ĠN XT
Ġt fp
Ġstr ftime
Ġh db
et er
Ġde m
li ance
ĠE P
RE A
uf ac
ĠM ASK
Ġk max
str cmp
str icmp
ns ure
do be
Ġx state
Ġx im
Ġx bounds
ĠR ight
DE T
INT EL
get val
ĠI G
ĠI ce
ĠT IF
IT ER
if n
il arity
ĠA l
ĠA uth
00 4
SE CONDARY
at ory
PR IO
PR IM
Ġdata Size
and atory
no ffset
ĠG Error
ĠG eometry
TR UST
Ġme d
Ġst k
ĠF O
ĠF IX
sta b
per fm
mb uv
ĠD ST
Ġ8 8
Ġ3 00
Ġse verity
rc ds
UN L
Ġnum h
bit wise
mm x
ĠW h
ĠV iew
pro jid
Ġkey seg
reg round
ĠU ID
ĠU MP
ĠU IO
ĠU IPC
Ġsh info
Ġvp s
Ġpro vider
BIT WISE
ĠH eap
ĠH RTIMER
Ġget int
Ġsc lone
di ag
Ġbp m
em ul
Ġmax q
Ġfa std
SL ist
ber os
Ġle ave
Ġle gend
Ġcmd nr
Ġcmd Code
msg free
AG ENT
Header Config
LS R
ru id
NE AR
min ing
mem slot
ture r
Ġmode s
Ġprint str
TO M
vm cs
EXT LEN
IS GID
temp t
Ġdi bh
Ġbe g
ĠRE PEAT
sub dev
Long Pixel
check point
Ġjs l
ĠIP CORK
10 1
Ġmp u
Ġblock ing
SC RIPT
ers on
PF ACE
Ġbl oc
Ġmin ute
ms i
Ġno mailbox
Ġsample Number
04 0
Ġ25 7
Ġfl g
ALL FRAG
Read PhyReg
auth orization
Ġpix Read
ĠEN ET
ĠEN AMETOOLONG
MIN OR
handle s
QU I
ler ate
Ġrfb Err
Ġrfb Set
Ġrfb Bool
Ġstring p
Ġiter ations
EV NT
ite ch
PO SE
br and
Add Pix
CAP TURE
En code
ADDR STRLEN
ua rt
Ġge cos
CL IP
Compare Extension
conf lict
Log itech
Ġprefix len
Ġupdate s
DP D
Ġband width
Ġcmpt parms
ĠMIN ISS
Ġpp vid
ĠSIG ILL
No tify
Ġos Sprintf
Stream ing
Ġgs m
Ġgs r
COUNT S
Ġalt col
ĠNE AR
policy dn
callback s
ĠHTTP Context
ĠAL O
orig inal
ĠSTAT IC
pk tap
Ġorder Info
For Keys
Block Size
FIN AL
Update s
global s
domain s
Po licy
Ġavail able
ĠDo mainName
FT M
rmt val
Di rection
snd timeo
Ġhand lers
ĠDIS ABLE
ĠPro file
Ġnump ipes
LEG ACY
ĠrfbEncoding Z
STRUCT URE
ĠCODE LENGTH
cmpt parm
Ġbea con
Ġmov ie
Ġeff ective
ARE A
suc ce
ĠGIT ERR
Ġinitial ize
Ġplay back
SEL F
Ġgra vity
ĠUn known
ear ly
Ġspec ulative
lat er
permission s
ĠPush LongPixel
IDENT ITY
Mac Addr
cycle s
ĠRList Iter
Ag ent
Ġhy brid
Ġdl ci
ilt in
numer ic
Ġpixa AddPix
Scan ForKeys
Wr ong
ĠDoGetFile Size
web socket
>[| %
ĠAC CEPT
Ġman ufac
Ġexport er
Ġchans Specified
Ġusing uid
Sha pe
ĠPOL LIN
Su bject
Compress Level
As String
RXQ CR
keepal ived
Lib rary
Ġgps d
TCB OR
NEST ING
irPDcap ScanForKeys
lugin s
ĠME SSAGE
241 16
)! =
ĠUP DATE
Conf irm
Keyboard LedState
ĠOSR TCBOR
ĠEIGHT TAP
ĠAr ray
Den ied
SLO TS
Tit le
ĠsBl k
Ġstick y
perfm on
ĠView OD
ĠMINISS DPD
Ġmanufac turer
$ '
. {
5 01
7 00
> #
A fter
A dobe
A irPDcapScanForKeys
B x
C Q
C ertificate
C CProfile
D LS
E mpty
E AI
F Q
F OLD
G ING
G lyph
H SList
I MPLE
K odak
L ICIT
M o
M eter
N UTLS
O k
P LEN
P AG
P TP
P lane
R SH
S SIZE
S PARSE
S aved
S WITCH
S imple
T W
T mp
T SO
U tils
V FS
W HE
X ON
Z AP
] :%
_ "
a ti
a ops
b print
b relse
b ignum
c tr
c sb
d cache
e ither
f id
f value
f ips
f rac
g h
g ory
g wp
h ub
i loc
i ocb
i quant
j h
j pg
j obs
k il
l buf
n v
o ted
p lease
r pl
s ans
u iv
u hid
v ips
w mb
x id
â Ģ
Ġ ONE
Ġ LOCAL
Ġi offset
Ġs mt
Ġs princ
Ġs pot
re use
Ġc bytes
Ġc cs
Ġc dots
Ġc ypress
Ġc losure
Ġc ritical
en et
ta c
ta ck
in ity
Ġp ick
Ġp ctx
Ġif num
se tuid
se amless
tr ied
ma j
Ġb tp
Ġb Interval
Ġb Endpoint
Ġf cc
Ġf indo
al Device
al InputDevice
rt ix
Ġn v
Ġn ol
Ġn bits
Ġn attr
Ġn ative
ad c
le ctor
Ġu f
Ġu file
Ġu fd
Ġu req
me s
Ġl list
Ġl pages
Ġe pos
Ġe community
Ġo om
Ġo sa
Ġo seek
Ġo akley
Ġo pex
Ġd blk
Ġd blks
Ġv sep
Ġr cur
Ġt ti
Ġt dp
Ġt WB
Ġm ld
Ġm Bits
Ġm secs
Ġm SampleRate
Ġm Edit
co w
Ġa rt
Ġa th
Ġa blocks
un a
un handled
ro te
ro cal
ag id
ig her
\\ \\"
ER ATION
ch id
Ġh port
Ġh stats
Ġh macs
ĠS potColor
Ġch oose
um in
li et
ĠE lse
ĠE nsure
Ġgo ffset
str nstart
Ġy m
Ġy size
AL READY
>% %%
ST REAMS
Ġchar set
ĠP X
ĠP pmd
ĠP IPE
Ġsta tions
ĠC UT
is msgid
ĠR P
ĠR DR
Ġw as
Ġw arm
ul pe
Ġma ddr
LE U
ĠI CCProfile
ĠT EXT
ĠT LV
as sed
ĠA BS
ĠA MF
ĠA nn
ĠA GOO
Ġ' $'
Ġndo pts
Ġj sp
Ġq pid
Ġdata ptr
AC P
and er
no mbaff
no const
pr nd
ate gory
ine ar
Ġout dev
Ġout FileName
Ġfor bidden
Ġbuf ptr
Ġex thdr
Ġval p
sk ey
TR eaderException
la v
ip eline
ip rocal
Ġyy r
Ġyy check
Ġyy default
Ġyy return
Ġyy reduce
Ġyy stos
Ġme gas
Ġst v
Ġst kt
ĠF p
sc m
per l
per frame
per cent
ĠD SD
Ġres ume
Ġnew v
Ġnew type
ne ar
oc r
Ġ8 4
Ġ3 60
Ġcol umn
NO WAIT
NO SIGNAL
print z
Ġse times
sh num
ex change
MA INT
Ġtmp in
Ġtmp header
UN PRIVILE
ID S
block group
ap red
add i
add ch
free gc
free ze
ĠV ar
ET TE
pro x
pro mise
ĠRead S
ĠRead PSD
Ġkey Agreement
key size
cmp xchg
ĠU FF
ĠU MOUNT
TI LT
sp b
CE E
MP TY
Ġmsg ptr
ĠReadBlob Short
ack ed
list s
Ġz free
Ġz tmp
Ġz Tab
am f
Ġlo ok
Ġal Context
AS F
di rec
Ġun ifi
Ġpo lent
Ġmax offset
Ġpar allel
Ġcolor v
LOG IN
pl atform
Ġswitch char
MAX DEPTH
>( -
MO YO
test ing
inter lace
UT ABLE
Ġ6 6
VP D
VP ACK
Ġuser ns
ĠThrow CU
IG RP
Size Of
MEM REF
Ġac cum
pth andler
RO GATE
Ġvm cb
Ġio b
Ġpu blic
File Loc
File Handle
Data Encoding
IS AM
IS QL
all back
all devs
ĠYY INIT
ĠYY LAST
ĠYY MAXDEPTH
Ġold sp
Ġold act
Ġinput Length
Ġoff load
Ġbe e
VER S
Ġdo s
HE AT
Ġlast Border
EE PROM
Ġbo s
US ERNAME
Ġtp n
sub key
sub nodes
ĠDe legate
20 10
Ġrs ds
Ġro le
AM D
Ġtime zone
base s
KEY S
ITE MS
ep oll
ĠCON D
Ġauth p
Ġ10 8
Ġno result
Ġsample Group
Comp os
Comp liance
Ġfs index
Ġevent fp
rect s
Ġtest s
Ġtv buff
Ġsz Temp
Ġ% =
Ġspin lock
Read Stream
Ġseg counts
Ġtrans action
Ġtrans mitted
ĠSetImage Info
Ġiov a
ĠTIFF Scanline
Authentic ate
Ġhead s
ĠCONFIG URE
work dir
work path
xff fc
Ġpeer CommitMessage
Ġmv comp
Ġmd ss
Ġmd io
bin prm
Ġsa i
Ġpkt info
Ġwrite back
WA VPACK
Ġnb chars
QU ENCE
Ġrate y
Ġpart Ident
ĠIN F
Ġsig check
Ġimp roved
Par ameter
PER FCTR
25 2
rep z
En able
Ġsys files
ĠRes ult
si lent
cat f
Of Bytes
ĠMax Red
ĠMax Blue
ĠMax Green
Ġ15 4
term ios
Ġchild regs
Ġlink dn
Ġlink dns
Ġrx o
ĠBLOCK D
Se quence
mov l
mov ing
Ġfil ler
Next Free
Per Channel
alg s
Ġpop ulate
Ġar c
PIX ELS
Write PhyReg
exit ing
append l
range s
Ġbi Height
fl ight
ĠString Value
ĠWavpack Header
Ġelement len
HO SIN
WAIT DELIM
DIS CONNECTED
DIS COVER
AB AC
pd x
pd y
Ġxml Free
Ġxml Relax
iss pace
Ġcaplen toobig
>{ "
ĠSIG INT
ĠSIG TERM
ĠDW C
wh ich
ĠRe store
NET WORK
Ġgs index
Ġprop agate
55 4
Is Extension
ĠTCP OLEN
From String
Ġstat fs
pen alty
Ġpost proc
OS ERR
TRAN SLATE
delay slot
Ġprc i
Ġprc j
gener al
select string
pk ts
Ġthread ing
sr f
ĠCopy Memory
Ġjp g
anal y
gr an
Open ing
gt k
MER GE
loop back
Signed Values
dn xhd
Ġbitmap Update
DOWN LOAD
Float Row
Ġlib fvalue
dist ance
Ġfac ility
ĠSIZE OF
ĠIs Postscript
Double Row
Request ed
Copy Rect
ĠSU HOSIN
intr apred
tected Hid
Ġda o
Ġcontainer dn
ĠNF SV
ĠHandle Ultra
ĠEnd XMPPacket
SEND ER
ĠPro tectedHid
DH Part
Source s
tiv ation
ĠFD T
Ġphase Accum
forward s
gss api
tible Rec
ĠValidate Output
ĠFS X
way out
nof ield
Temp orary
cmpt no
alD igits
ĠSG N
Capture OpenDevice
Dec oder
Call ing
COLOR MODE
Ġdiv isor
Ġtid cnt
Ġcmp v
Ġla mbda
Ġvf y
Ġqalc IsExtension
Ġqalc CaptureOpenDevice
CONNECT ING
Ġba ilout
ĠCMS err
Result Row
Ġfinish ed
Ġsamp lerate
calc ulated
inst ead
STOP PED
Ġmal ware
ĠpSub item
vol first
HOP OPTS
Ġreason Len
Ġrad name
Ġgau ssian
Cipher Init
Ġud qp
CALLBACK S
Postscript Delegate
Ġphys ical
ĠTO MOYO
Ġder len
Ġnull devname
ĠSy s
graph ic
HARD ERROR
Ġglob val
MC ID
Ġbzrtp HelloMessage
BOUND ARY
CSUM ERRORS
clean se
ject ing
ĠCOM MIT
ĠCMYK Colorspace
ĠCMYK ProcessColor
Ġulong long
Ter minated
ĠRList Free
SIGNAL ING
ĠDocument ProcessColors
ĠDocument CustomColors
xE B
Meta Data
SOL LEN
ĠBegin XMPPacket
Ġadjustment s
Unrecognized BitsPerPixel
Ġschema ta
Bu ild
ĠJS GRAPHICS
DELEG ATION
GII Valuator
ĠHFS PLUS
Ġapple pushservice
Ġhstore Check
guint var
smp s
ste al
Null Terminated
Ġmq ttSnClient
PAL ETTE
Ġsubtlv s
Ġour set
alDoppler Speed
SHEL L
ĠJs Graphics
ĠSTD ERR
Ġfmtopv AA
pmb air
ĠNt ChallengeResponse
ĠNt FileHandle
ĠPartition Interlace
geta cl
Ġview s
Ġhybi Decode
Ġdigests Defined
ĠInsertComplex FloatRow
ĠInsertComplex DoubleRow
Ph ase
dq rele
ĠFix SignedValues
Ġnx ip
Defrag SturgesNovak
CLA S
gu ard
Ġiop l
strl catf
ĠBlue Quantum
ĠLo Ra
DESCRIP TOR
Pk Id
Ġfraction alDigits
ĠEXIFMultiple Values
UnableToCreate Temporary
ĠHIDIOC G
ĠCheckNumber Pixels
ntoh u
ĠbytesPer Line
WOULD BLOCK
Scheme IsNotSupported
Ġday s
ĠHT Chunk
ĠGetDelegate Info
ĠPercep tibleRec
ĠInterpretImage Filename
memo bj
ĠhD bc
Ġdetach ing
Quality Level
Ġreserv ations
ĠAN CHOR
ĠRESP ON
PRECI SION
OPTIM IZE
Ġform Type
Ġbytesto copy
ĠpWrite Buff
ĠpOutput Buffer
ĠWHITE HEAT
Ġprg volfirst
ĠDefault Resolution
ĠZip file
bil inear
EVNT SEL
WHE EL
ZAP PED
csb p
Ġspot color
ĠbEndpoint Address
Ġfindo prnd
ĠmBits PerChannel
ĠmEdit Count
ĠEnsure NullTerminated
ĠAnn Assign
Ġmegas as
UNPRIVILE GED
ĠkeyAgreement Algo
Ġunifi lename
ĠThrowCU TReaderException
Ġaccum ulate
DataEncoding SchemeIsNotSupported
ĠYYINIT DEPTH
ĠsampleGroup s
ĠTIFFScanline Size
ĠpeerCommitMessage Data
ĠIsPostscript Rendered
ĠProtectedHid Vol
DHPart Message
ĠqalcIsExtension Present
ĠJSGRAPHICS FLAGS
Ġapplepushservice args
ĠLoRa Mac
UnableToCreateTemporary File
ĠPerceptibleRec iprocal
ĠEnsureNullTerminated String
3 02
4 949
9 08
> `%
A p
A AC
B atch
B utton
C or
C lr
D SC
E AP
E ph
E SP
F N
F REQ
H AL
H old
I ER
J NE
K B
L ic
L UT
L IC
M is
M ID
M aster
N i
N PROC
N BR
O OD
P AT
P AC
P lay
P REF
Q ST
S afe
S INE
S oftware
T rim
U pt
V F
V ICE
W AR
W ATCH
X P
b et
b ump
b tif
c spn
d at
e ft
e ference
f ini
g i
h b
h ide
i op
i us
k l
l k
n mi
q f
q uan
r table
r lvl
w g
w l
w t
w nd
w anted
x Worker
y n
Ġ tuple
Ġi u
Ġi ifd
Ġs an
Ġs ink
Ġs av
Ġs enc
re allocate
re negotiate
re sgid
re stricted
Ġc flag
Ġc realm
Ġc ptype
in ct
in ary
Ġp free
Ġp Ret
tr c
Ġb ound
Ġf length
Ġf bind
Ġn Src
Ġn pat
Ġin active
Ġin herit
Ġl fl
Ġe ste
Ġe wk
Ġo type
Ġo tp
to sh
Ġd conf
Ġd ictionary
Ġv r
Ġv nc
Ġv lc
Ġr rec
mp v
ĠN M
ĠN ext
ĠN FC
Ġt tr
Ġt od
Ġt enc
rea ded
Ġstr Trim
co v
Ġa ptr
ro id
UL ES
err s
Ġco untry
Ġco apClient
Ġh ad
Ġh data
Ġh oriz
ut s
ut Text
pe ak
ĠS end
ĠS LICE
Ġch md
Ġch own
ing er
Ġde sired
ĠE POLL
ĠE WOULDBLOCK
ĠM M
ĠM ail
ĠM AIN
ĠM note
ĠM WIFI
Ġ2 24
end p
ode v
Ġy max
Ġy day
do s
ST E
ĠP ers
ĠP refix
ĠP ICK
ĠC X
ĠC IR
is oc
dec ref
Ġw ill
Ġw ireless
arg c
ĠI f
ĠI CON
ĠI ORE
ĠT rack
up s
il on
ĠA v
Ġconst ant
Ġq uantiz
Ġex clude
ĠB yte
ĠB AG
ĠB IG
LO DE
ĠG lobal
ĠG NUTLS
ME SH
Ġyy get
Ġst t
Ġst rength
SI L
SI LEN
sta le
per bit
ist ic
Ġnew size
Image s
es h
Ġ3 15
PE L
ĠL S
ĠL eft
Ġse tuid
Ġtmp min
Ġop b
Ġop id
EN E
ap pid
add resses
ic sk
Ġvalue int
ĠMagick Eps
ĠV OL
ĠV HOST
ET M
bo s
Ġid ctx
Ġfile p
Ġfile Ident
Ġlo st
ĠH IGH
Ġal pn
AN K
Ġreg Test
Ġpr line
Ġpr ctl
Ġsb h
start ing
Ġas rt
ĠO FF
ĠOP EN
pp vid
ĠGet PSD
SET FL
Ġnext pos
Ġpc lrd
SH L
Ġaddr size
Ġset gid
dis position
Ġ16 77
Ġmb mode
port number
Re served
db d
ind ication
Ġlog s
Mem Tracker
ffff fff
IS CHR
Ġdi rentry
Ġad tkt
ĠX C
Ġentry length
ĠVP xWorker
PRO TE
Ġrs pac
Ġrt o
Ġsub str
SP I
Pro cessed
ib a
Ġdec JoinAccept
enc aps
Ġauth info
Ġmnt get
sum er
DO CU
FILE SIZE
open req
Ġdis abled
ĠTI CK
COMP OS
resh old
Ġtotal frames
Ġsin pi
MIN SIZE
ĠStr new
go to
Ġim Out
Ġ9 2
xff fe
Ġ24 5
DEV S
Ġld t
Offset s
sa fi
Ġpart data
Ġversion Minor
Ġclass ify
ĠIN LINE
ĠIN ADDR
Ġsig len
Ġsnd buf
CR QST
PER eference
Ġck pt
zero mv
Ġicmp h
CAP S
option al
Ġsys fs
Ġns Nr
Ġpk tap
ĠCO SINE
CL IC
Enc Context
alg orith
instance s
USE C
Tr unc
Ġ20 7
Ġexec ute
Ġblk cnt
Ġbi Clr
Ġ"( "
NS Name
Ġpp m
exec buffer
ener gy
PATH S
div isions
signal s
LINK LOCAL
26 366
DEVICE S
ĠBIT MAP
AV AI
Ġcg s
full y
NORE START
Ġbio s
ĠINIT IAL
CLO SING
TOKEN S
PL U
SOCK ADDR
Function Call
Ġ"\\" %
post proc
MOUNT ED
ĠCF G
Run ning
Ġsafe puts
second ary
ĠPro tocol
gn u
ĠPage Swap
NOR M
The re
Sy m
unmap ped
Ġanal y
Ġgit err
switch able
inte gers
ĠPa th
mk dir
Ġdn xhd
cal ed
FR AC
CEIL DIVPOW
RI FF
ĠMAG IC
POSIX ACL
HOP S
HOP LIMIT
bro thers
tod o
Ġwake up
ENO MEM
ĠLINE SIZE
encrypt ing
ker note
Try ing
All Sounds
ĠSER VICE
adap tive
Down load
arb age
HY BI
Ġreceive Queue
Wh ile
sched ul
Ġcomb ine
ĠPrint Time
ĠFPM B
INTERR UPT
ĠOUT PUT
nat tch
Ġ102 3
Iter ator
Ġrecur sion
Ġvfp def
Ġmsix cap
ĠMET A
recur sion
ĠencStr Len
BLANK S
keepal ive
prin ted
ENUMER ATE
Crea ting
EAR LY
Ġdatagram s
environ ment
adv ance
Ġglyph s
ĠMAXDATE FIELDS
White space
Mar k
dsa key
Ġredis Log
ĠNegotiate Flags
Built In
pur ge
INFIN ITY
ĠhIn i
Ġand roid
ĠiC CT
ĠHAND LE
Encoded Strip
DELT A
ĠMpeg EncContext
ĠCY CLIC
Ġencaps ulated
ccp p
car rier
Ġho sta
ĠDown mix
TOT AL
sige v
Ġtfp def
DET ACH
ĠGeometry Info
ĠALO GE
Lic ense
Ni kon
Upt odate
Ġeste id
tosh iba
ĠstrTrim Whitespace
ĠMWIFI EX
ĠIORE SOURCE
SILEN T
ĠMagickEps ilon
Ġ1677 72
algorith ms
26366 256
AVAI LABLE
! %
, +
0 123
3 30
7 32
? ?"
A AD
A IG
B J
B ase
B SEL
B lend
C W
C orrupt
D ON
E FF
E BX
F inish
F ence
H ead
H SM
I cc
I gno
J P
K C
K nown
K WA
L NK
M CE
M IG
M ust
M FR
N EX
N TP
O A
P IT
P im
P WD
P HOTOMETRIC
P ipeline
Q OP
Q MFB
R SV
R eader
S LAB
T NA
T NOSUPPORT
U PPER
Y MO
Y CbCr
] [\\\\
a abc
a blkcipher
b ash
b im
c size
c shrc
e oc
e payload
f mode
f enc
f push
g ent
g row
g pu
h or
h al
h ore
h rtimer
h pagesize
h igher
i to
i sed
j ref
j ail
k names
k PSK
m note
n ump
n fc
o len
o help
p func
q delta
r an
r discovery
s err
s ix
s parse
s ax
s lp
s ighand
t li
t ci
x off
x BitMap
y off
} ?
Ġi k
SV ME
Ġs locale
re serv
re verse
an notation
Ġc fo
Ġc ut
Ġc fa
Ġc dev
Ġc char
Ġc sec
in j
Ġp name
Ġp buffer
Ġp di
Ġp lu
Ġre ordered
Ġb v
Ġb ata
Ġb ol
Ġb idx
ge ti
Ġf fd
Ġf input
st rength
rt le
Ġ" @
te levision
Ġn ch
Ġn ab
Ġn ib
Ġn Alloc
Ġn Op
Ġn columns
Ġn WB
Ġn kwonlyargs
Ġn prune
Ġin knames
ar roba
le toh
Ġu short
Ġu bufs
tu ito
ti value
Ġl ongest
Ġe size
Ġe pi
Ġe match
Ġe gress
Ġe lf
Ġe wq
Ġe scape
Ġo a
Ġo color
Ġo cc
to ffset
Ġd dp
Ġd xfer
Ġd Center
Ġd NSName
Ġv buf
Ġv write
Ġv fc
Ġv fork
Ġr l
Ġr phy
Ġr xpmtu
mp ut
th umb
ĠN SS
ĠN IC
ĠN ONE
ĠN UMA
Ġg pa
Ġg di
Ġt t
Ġt bl
Ġt sample
Ġt dots
rea s
rea ssign
Ġm ne
Ġm ander
Ġm mput
IN FORMAT
Ġa z
Ġa time
un i
ro lled
fo p
fo ur
Ġco okies
et s
ĠS D
ĠS PE
ĠS IX
ĠS BOX
ile vel
um s
um ing
set p
set v
set env
li as
li tude
ĠE L
ĠE IR
ĠE UID
ĠE SOCK
Ġgo ld
RE INTER
RE PAIR
Ġ2 16
Ġ2 33
Ġk o
Ġk sep
Ġk gctx
32 0
str ike
Ġerr mess
Ġy am
Ġy pos
Ġy off
AL IVED
ign ame
ns c
ns m
ns Flash
ST UDIO
Ġx pos
Ġx off
Ġx yz
AT IME
ĠP UN
ĠP ack
ĠP SW
ĠR tl
Ġw mi
Ġw fd
Ġw sa
Ġw rote
Ġret nam
LE AVE
LE xec
ĠI M
ĠI UCV
ĠT ag
ĠT ry
con ver
as a
ĠA IO
at s
ptr s
Ġq lock
addr len
no case
nt sc
Ġout Size
Ġex cl
ĠB uf
ĠB ytes
ĠB ilevel
Ġ4 19
Ġ4 127
ĠG ID
ĠG EN
TR L
ip tables
map hore
Ġst sc
code blocks
code words
ĠF lag
ĠF MT
ĠF LV
ĠF PRS
Ġend Phase
ver f
ĠD RS
Ġnew counts
es pan
Ġ8 1
Ġcol b
ĠL T
ĠL ayerInfo
Ġse tivalue
sh rink
Ġct sn
MA IL
Ġtmp l
Ġtmp fd
Ġtmp Digests
Ġto td
Ġto tfr
Ġto trate
UN RE
Ġnum var
Ġnum Fold
EN CI
Ġcm nd
Ġdev cert
CH EAT
add ref
CT S
ic cprof
num src
num rows
num cols
num holes
Ġvalue start
Ġvalue blk
Ġvalue Len
Ġip id
ĠV SB
ĠV IPS
ĠV iffInfo
bo unce
Ġkey map
po ssible
Ġtype block
Ġname idata
sp lice
Ġsock d
MP I
Ġmsg num
qu enc
ĠPy Dict
fs ck
Ġrc ache
Error Msg
RA ID
Ġis dn
res v
line Type
Ġget word
AS OC
user locks
Ġreg size
time val
di rent
Ex pected
Ġun seen
sb h
Ġmax out
Ġass igned
ide d
mi tive
\' ,
Ġcomp lain
Ġsrc len
pl us
Ġrow step
UM C
Ġcmd tab
write v
write page
Ġinfo p
tra iler
Ġmi COMPRESSED
Ġmi MATRIX
MAX PLEN
Co RRE
Ġread buf
mt thresh
ĠGet NextImage
ĠGet Multi
blk sz
SH OW
md ir
md lm
unc ached
Ġset key
Ġset meta
Ġsp wd
NE ON
Ġ6 8
min ator
ĠTh en
IC mp
Size GetRing
Ġheader size
ind ic
Ġstream id
vm w
vm ss
ĠMS KWA
new root
List MIC
IS K
ĠYY SYNTAX
Ġold shell
Ġold proglen
Ġold slp
ca pacity
Ġad ded
Ġcl h
Ġoff x
Ġoff str
Ġ7 1
Ġ7 834
Ġref erral
HE ART
TP ID
Ġattr type
Ġattr name
Ġ12 0
PP ORT
sub s
sub mb
sub device
sub rows
sub form
Sh ell
inc ipal
PAR ATE
Ġfd n
check stack
Ġsub map
Ġsub rows
Ġsub channel
Ġsub pel
OK AY
CP US
Ġtile height
Ġmod ifier
Ġtime scale
cmd to
Ġdec len
SC AL
Ext Index
ĠSetPixel Opacity
ONE PER
format ted
Ġbest p
Comp atible
ĠEXT ENT
Ġfs meta
04 8
Ġtemp a
Ġtemp l
Ġor dered
Ġsign um
scan row
Auth Pack
skip u
cb inary
auth data
Ġcheck er
Ġpid s
Ġpid fd
ĠCH ANGE
SR VR
Ġred Max
Ġred Shift
Ġinit resp
Ġgreen Shift
Ġmy error
Ġmy entity
Ġroot flag
Ġroot mnt
Ġblue Max
Ġblue Shift
go ogle
ĠMO UNT
seg counts
Ġ9 3
Ġ9 99
Me ch
Me trics
pri mitive
Ġtcp rex
Ġtoken len
Ġrun dest
Ġmm un
Ġsg desc
ĠEOF Op
Ġwrite Pos
ded uce
Ġsend cmdto
Ġnr anges
Ġsig restart
Ġpv Return
Ġstring set
match ing
Ġapp info
PER MS
br igade
Add Number
CS F
CS NP
irq chip
Packet Size
Value Error
Ġpg base
En tities
EC X
Ġhost ent
Ġcb cr
Ġtask list
Ġcrypto Utils
ĠMax Code
current file
Ġcred entials
xffffffff UL
Ġrx ent
Ġrx buf
Ġssh dr
SIG BUS
Per Meter
Ġput s
Al g
Ġpipe color
Ġev buffer
REP LAY
Ġtable Length
BE AT
Inter pol
Ġbi Icc
Table Box
SEC RET
HO C
Ġsr pt
ĠUN MOUNT
AB RT
Ġerrmsg buf
sem ble
Ġui Bit
Ġdump hex
MI I
Device IoControl
COL GRP
ĠSE PARATE
FE AT
Stream Bools
Stream ingSound
ĠTCP F
Ġpad bytes
connection s
Ġmtu info
GO A
Ġpartition ing
Ġfe of
Ġwork path
Ġnon blocking
ĠNET SCREEN
TRAN SPORT
Ġpack age
PRIV S
dd y
ĠTC DeviceIoControl
ĠSe ssion
Ġmx CHAR
Ġmx DOUBLE
Ġmx SINGLE
ĠCOPY FD
ĠCopy Field
TRUN CSF
Ġedit or
pad ded
Ġsamples perpixel
Ġwr maltWithLock
Ġyyn errs
ctrl pipe
TRUNC UF
Row Size
Ġfunc name
Ġ19 2
Ġdup cnt
Ġsupported Mech
encoding s
GEN ER
scr ub
Dis able
OVER WRITE
nl ri
Ġcms Pipeline
sym tab
Ġsigned AuthPack
ĠIs Valid
100 1
TCP DUMP
Gener ate
FLOW INFO
ĠSU PPORT
ĠDH Part
DEN TIAL
ĠVer naux
Min imum
Link Count
Ġyymsg p
Ġzero copy
snd msg
snd ctrlpipe
Arg BuiltIn
ev tchn
pop ulate
accept q
crypto graphic
ĠPro cess
Ġparser TestSuite
ĠReadBlobFloat sLSB
ĠReadBlobFloat sMSB
idct dsp
BR K
Ġkw a
origin ation
Ġmech ListMIC
Ġmulti part
Ġempty StreamBools
Ġextr as
BIND ING
57 78
DISP LAY
Ġhop len
ASS OC
nf header
Ġsv branch
Ġpat terns
crop ped
generic RGB
Ġdiv isions
sl ur
THRESH MULT
Ġemul pc
ĠCo unt
ROW SPER
Ġrenew able
NVM Type
Ġsarray Destroy
ĠReadBlobDouble sLSB
ĠReadBlobDouble sMSB
ĠSample Size
Cipher Error
dot dot
psn p
Strip Size
ENCODING S
Ġtgt dev
Ctxt Ptr
Ġconfirm Message
IMP LICIT
ĠTS Query
ĠReadProperty SignedLong
Ġpwd mnt
This String
Ġvfs mnt
BOUND S
pels PerMeter
Sc ript
Ġrpmfi Archive
gate way
ĠCOM MA
ĠNT STATUS
ĠExit Function
Ġrepr s
Import QuantumPixels
craw l
Do main
Gra tuito
Ġvget q
pas sed
white list
Ġaac FileName
ĠTCG v
Ġbid der
Ġhold time
ĠEBAD FD
CONVERT SI
CONVERT UI
HelloMessage String
Ġlr ptr
Ġstu b
ĠZER O
HID DEN
Ġax ohelp
Ġchk ext
Ġproxy auth
Ġapple double
web m
Ġseed size
engine s
CHRO ME
Put s
vi olation
edList Info
Ġwsz Label
Ġwsz Volume
srv bev
ĠMAT Header
Ġlim its
Ġasm op
Ġmerkle s
floor list
CY CLE
=\'% .*
launch er
SMP S
cand idate
Ġrespond er
ĠFix Logical
AUTHENTIC ATION
WAY S
ĠPROTO COL
INCLU DE
MONO CHROME
ĠMSBOrder Long
ĠMSBOrder Short
IFF Image
dw SizeGetRing
Ġgrp name
Ġah req
ANON YMO
PSN P
Ġcontain ers
SCHE ME
Ġftp Client
addip hdr
Ġ3276 7
susp ended
ĠMaxGIF Bits
ARGU MENT
Storage TypeIsNotSupported
ĠCAFChannel Layout
ĠxmlFatalErr Msg
author ized
Priv ate
GPS Dest
AFF INE
FREQU ENCI
supp ress
ĠKEEP ALIVED
LIF ETIME
Mag ic
ĠSizeOf Tag
Ġloopmax w
ĠSP LIT
DETE CT
fire jail
Structure Class
avig ate
Ġbufo bj
NOTH ING
ĠLink edListInfo
ĠPROC NAME
ĠDisable MSCWarning
ĠCurrent ColorSpace
SSI DS
sar i
Incompatible SizeOf
ĠIG NORE
Ġminute s
ĠNEAR MV
Ġnv met
Ġopex str
Ġpublic Key
ĠRestore MSCWarning
ĠJsGraphics Flags
ĠhybiDecode State
ĠHTChunk Puts
Ġiu spin
DOCU MENT
PLU GIN
AIG P
Blend ing
bash rc
Ġplu to
Ġbata dv
Ġmne m
INFORMAT ION
ĠSIX EL
ĠESOCK TNOSUPPORT
REINTER PRE
ĠPUN FETCH
Ġretnam len
ntsc RGB
ĠBilevel Type
Ġtotd ist
ĠnumFold ers
quenc er
lineType Metrics
ĠGetNextImage Property
ĠGetMulti lineTypeMetrics
ĠMSKWA J
HEART BEAT
subform len
ONEPER BAND
ĠCHANGE PW
Ġtcprex mtthresh
ĠcryptoUtils TestSuite
ĠbiIcc Profile
COLGRP SIZE
ĠDHPart HelloMessageString
ArgBuiltIn FunctionCall
ROWSPER STRIP
Gratuito us
ANONYMO US
FREQUENCI ES
IncompatibleSizeOf Double
# "
, !
1 34
2 13
4 554
A ck
A rea
A ss
A PE
B ind
B OL
B lack
C CS
C ROSS
E IP
F LY
G PR
H L
H dr
H LEN
H PAGE
H eap
J FI
J OB
J EQ
L inux
M LOCK
O OTH
R ITY
S in
S SIM
S anity
S egment
T TY
U DO
W av
W STRING
X id
Y ES
] }"
a ma
b ss
b ith
c ab
c able
c ork
c ategory
d ss
e i
e lect
e scaped
f raction
g imp
h ugetlb
i w
j av
k malloc
l list
l ated
m cs
o red
p chg
p msi
r phy
s conv
t vb
v li
w sum
w ere
w ritable
x smp
y an
y ear
Ġ DE
Ġ LOCK
Ġ DEVICE
Ġi ml
Ġi New
Ġi Arg
Ġs fs
Ġs OK
Ġs Ext
Ġs socket
Ġc al
Ġc um
Ġc enc
Ġc snmp
Ġc atalog
en queue
in I
in ing
in ted
in use
in direct
Ġp Match
Ġre vents
Ġb ts
Ġf pt
st dio
al ive
Ġ" ***<
Ġn C
Ġn arg
Ġn buf
Ġn dir
Ġn Val
Ġn Elem
Ġin mem
Ġin crea
Ġu w
Ġ1 88
ti re
me mmove
Ġe CipherError
Ġo offset
to ul
Ġd al
Ġd fa
Ġd io
Ġd sec
Ġv device
Ġr map
Ġr usage
mp d
lo st
ĠN ntp
Ġt comps
Ġstr ips
Ġm if
IN DEF
Ġa Col
Ġa gg
un auth
un available
un implemented
ro bust
fo ob
ER NEL
Ġh rd
Ġh lim
ile Header
Ġch dlc
set xattr
ĠE CON
RE SUME
ĠM A
ĠM RB
ĠM AIL
Ġ2 20
Ġ2 01
Ġ2 19
Ġ2 88
Ġ2 17
Ġ2 70
Ġk enter
Ġk zfree
OR RECT
str ong
Ġy left
ON ENT
ON EXEC
ON THE
>% %
ĠP AN
ĠC N
ĠC all
ĠR ULE
Ġma kernote
ri ff
get ting
ĠI nt
ĠI FD
ey ond
ĠA SI
ĠA ssign
ĠA ugAssign
SE SS
SE QUENCE
at ype
Ġq s
Ġq bit
no op
ĠB ORDER
ol ate
ip red
WE B
ĠF ree
Ġend Address
Ġnew key
Image TypeNotSupported
Ġ3 01
Ġ3 34
ĠL PC
Ġse cs
sh ash
par ity
UN SAFE
Ġlength Alloc
read line
In clude
Ġnum Bytes
Ġnum colors
ID s
CH AL
add itional
CT IME
ref cnt
ĠW LOG
ĠMagick Absolute
row ser
error Write
frame buffer
ĠV O
ĠV irt
FF ileHeader
pro m
bo ur
for w
Ġmem zero
po x
po lent
reg set
ĠU SR
FI PS
sp end
Ġsh ost
col on
ect angle
ĠPy Bytes
Ġid t
Ġid file
ac c
ac ted
Ġz dp
Ġz Col
Ġz found
Ġptr B
TYPE MASK
Ġfile set
Ġis Local
Pixel Format
BIT PACK
Ġpi ctype
buffer size
ĠH uff
Ġal ways
out R
Ġget pwnam
Ġpr v
CON SISTENT
Ġmax rows
Quantum Format
mi bs
TH IS
Ġsw ab
ab ility
Ġsrc reg
Ġsrc IpAddr
ĠK G
ĠK ERNEL
UM MY
ĠAV STREAM
IL CE
>( \'%
us ual
ĠOP ERATION
MO B
ĠGet LastError
SET UID
md t
unc ache
Ġaddr in
Ġset locale
ĠSet Color
Ġsp lice
Re order
ard s
fd c
comp iler
RO SE
ec dh
File Id
Ġreq sk
IS REF
IS BLK
IS UNDEF
bs d
000 6
000 8
Ġver s
ca de
De compress
Ġ7 3
pos ure
FO pen
US ING
Ġenc Key
Ġenc ryption
rd p
use Top
Ġtag Ident
check ed
10 5
Ġup load
event query
Ġblock Size
Ġih l
SC SS
=% "
Ġchunk Start
READ WRITE
Ġdesc Tag
Ġdesc riptions
ĠCON VERT
Get Bits
ĠQ B
ĠMAX Q
REG UL
Ġ10 6
Failed Count
format s
format list
Ġno var
Ġmo unted
Ġmo saic
open ssh
Ġsz File
Ġms leep
>\\" "
Sta t
version info
tx m
ĠDestroy DrawInfo
top mb
ĠAcquire Unique
COMP ACT
Ġtotal rate
Ġtotal lines
Ġred uction
ERN ET
Ġpix d
PA IRED
head room
flow er
Authentic ator
RD P
pri m
Ġfirst block
Ġtcp s
Ġtoken Names
xffff ff
DEC RUN
Ġsq l
ĠpS elect
AU SE
dio read
Ġconn rec
Par sing
PER SISTENT
rl m
Ġca if
Ġca ched
Ġap prox
Ġpg mp
EC DHE
BAD OPTION
Ġpk Authenticator
Module Arg
change hat
Ġchild ren
Ġdb us
Ġmac vlan
Ġlua T
label fd
Ġprefix subst
RT Info
Write Config
Write Pix
SLICE S
ofst s
03 9
ĠUN CONSTRAINED
coded Byte
Ġrep len
VALUE S
GRO W
Ġaf rt
NET DEV
NET LINK
stand alone
RGB A
DB LK
Ġpartition Reference
LAN G
ĠGET INT
Ġli u
reference s
TX T
TX FM
AV T
RX CR
cert s
krb principal
krb ticket
krb Login
For bidden
MATCH ES
Ġindent str
ĠSH IFT
hw addr
inet d
ĠosStr toul
BL UET
Ġbig ger
Ġbig endian
bp m
eb x
retry ing
align of
Ġinterp olation
right s
Vdbe Multi
TIFF memcpy
ĠSCSI Request
ev nt
huge cache
Ġpol name
ĠImport From
ĠNo Palette
BR ACE
ĠMV c
ĠMV r
Ġdeno minator
Ġfps aved
origin ator
INTEG RITY
FFFF FF
Ġpan ic
ĠNP N
Ġod d
ĠENOT TY
Verify Update
Ġvirt net
>@ %
Ġcmp ts
ChunkHeader Format
Ġpattern ZRTP
Ġsarray Create
ĠEndian Type
REQU I
vis ual
Ġmis match
ĠCA FFileHeader
Ġwin choice
Ġseek To
:/ /
eth tool
ĠLIN K
Conne ct
Ġmic Header
And Check
XY SCSS
ĠPC IM
Default Root
region s
Gra vity
Spec ify
xD one
ins ufficient
Pr incipal
daemon ize
renew able
asc ript
Ġcdx l
variable s
TRACK ING
hv a
memb ers
batch ed
ĠImap Data
Ġgrow Buffer
Ġman if
Ġour s
REUSE ADDR
Ġbfq q
san e
ĠWE B
starts with
OVERR IDE
Ca ption
ĠMy Flags
ams ung
STER EO
Driver Name
ĠPCD GetBits
icc getuint
ĠaddReply Error
Ġinsns i
ĠEn codedByte
Valu ators
ĠADJ UST
DUP LEX
AUTHENTIC ATE
Ġrk a
Ġnumer ator
CIR C
Strips IntoBuffer
XXXX XX
202 0
Hex tile
PSE UDO
Ġblank line
Ġcarry len
ĠRPC SEC
FORWARD ABLE
linger time
ĠGreen Quantum
mbo lic
ĠUser Name
FORE IGN
Ġlocalpal bits
PLA IN
look ahead
Ġhour s
Ġsendbuf idx
ĠlogicalBlock Num
Ġdissim ilarity
crash ed
ĠGRP QUOTA
ĠencJoinAccept Size
ĠPROFIL ING
Ġstere o
ĠreturnSingle Int
ĠRBinD warf
ĠmFormat Flags
VARI ABLE
Ġsal sa
accep ted
DNG FM
mechanis m
Ġdem name
PRIM ARY
CLIP BOARD
FQ DN
ĠSetImageInfo Blob
Ġsan itize
Ġbound ary
inger print
ĠregTest WritePix
ĠPath Length
schedul ing
four cc
GOA WAY
ĠIsValid ColormapIndex
JFI F
Wav Pack
jav ascript
Ġincrea se
foob ar
ONTHE FLY
ĠPAN GO
ĠlengthAlloc Descs
ĠMagickAbsolute Value
ĠUSR QUOTA
ĠisLocal Config
BITPACK ING
FOpen File
useTop MB
DECRUN CH
ĠpartitionReference Num
krbLogin FailedCount
BLUET OOTH
VdbeMulti Load
Ġwinchoice s
ĠregTestWritePix AndCheck
( \'
) !"
1 02
1 77
2 12
9 00
= /"
> }\\
A DE
A FE
B LEN
C orruptImage
D IT
D uration
D XT
D TLSEXT
D WT
D XFER
E no
E MS
E lf
F VALUE
F latpak
G IS
H and
H DESC
H ALT
H UFF
I ERROR
I HDR
I CONV
K NOWN
L MA
L VALUE
L iteral
M ix
M SIX
M UX
N ee
N DIM
O DB
P red
P UR
P seudo
P ager
P lanes
Q PT
R id
S ock
S ITE
T PR
V FP
W in
W ME
W ave
W idget
_ (
a id
a decimal
b Bits
b ios
c lo
c dev
c def
c nx
d on
d mode
d ers
d inode
e os
f ht
g a
g ht
g rep
g fp
h r
h uff
h dev
h na
i ht
j bd
k log
k now
l q
l atched
n ss
n la
n ice
n from
n top
n br
n trl
o be
p or
p blk
p tep
s name
s ong
s attr
s Op
s SAFI
t read
v malloc
v ia
v ided
w or
w buf
w scale
w ks
x end
x FC
y g
y end
z ag
z ig
z shrc
Ġ LEVEL
Ġi B
Ġi ptr
Ġi value
Ġi Table
Ġi perf
Ġs lo
Ġs alen
Ġs avings
Ġs anity
re location
re wind
Ġc user
Ġc ru
Ġc ret
Ġc nf
Ġc Del
bl en
er ok
in ject
Ġp y
Ġp res
Ġp req
Ġp fb
Ġp Name
Ġp Map
Ġif ile
Ġif name
Ġif ap
de lim
on ame
on ic
on eline
ma rt
ma ddr
Ġre lay
Ġre verb
Ġre formatted
Ġb x
Ġb ptr
Ġb tmp
Ġb ulk
Ġb Verbose
Ġb igname
Ġf error
Ġf fs
Ġf async
Ġf oo
st or
st frag
al alg
rt ime
rt nl
Ġ" +
Ġ" \'%
te a
Ġn val
Ġn In
Ġn sock
Ġn Name
Ġn vec
Ġn frags
Ġn Expr
Ġn pairs
Ġn sect
Ġn nh
Ġn Elements
Ġn Rows
Ġn avigate
Ġin str
ar ameters
Ġu io
Ġu byte
Ġu alg
Ġu kp
Ġu blue
Ġu verbs
Ġ1 76
Ġ1 94
ti fier
Ġl id
Ġl dr
Ġl ate
Ġe hdr
Ġe tmp
Ġe malloc
Ġe NVMType
Ġo end
Ġd di
Ġd ft
Ġd vp
Ġv ir
Ġv ext
Ġr as
Ġr pu
mage d
mp attr
lo ced
ĠN OR
Ġg hash
Ġt fh
Ġstr sub
Ġm ce
Ġm info
Ġm row
Ġm col
Ġm log
Ġm ob
ce ed
IN CONS
IN VERSE
IN CONSISTENT
len coded
un m
un safe
un compressed
un pin
un usual
ro le
Ġimage w
ch il
ch allenge
Ġco w
Ġco up
el low
Ġh MP
Ġh Env
ĠS uid
ĠS tore
ĠS tk
Ġch ost
Ġch erok
lse lector
set clrspc
ĠE OVERFLOW
RE ND
RE ALLOC
ĠM UL
ĠM ap
ĠM IC
Ġ2 32
Ġ2 02
Ġ2 10
Ġ2 15
Ġ2 22
Ġk ptr
str ibution
pa ren
Ġy val
Ġy pred
ign bith
ur bs
ST P
ST X
Ġx val
ĠP ri
ĠP DF
ĠP RED
ĠP ASS
ĠP EXTENSION
ĠC ATE
ĠC NT
is ing
ĠR IO
dec lar
Ġw pa
Ġw Descriptor
DE SK
DE TAIL
Ġma cbinary
get data
get msg
LE SS
ĠI ON
ĠI FA
ĠT SS
ĠT EX
data to
ĠA CCESS
Ġq end
Ġdata In
pr cs
Ġout p
Ġout ptr
Ġout buffer
Ġex per
Ġex pect
ĠB SD
Ġ4 04
Ġ4 21
ĠG String
ĠG HASH
ĠG ROW
ĠG EMS
TR O
TR IG
ip x
Ġyy in
Ġme tric
Ġst size
Ġst anza
ĠF IND
ĠF MOV
per sample
ĠD WORD
file gen
Ġnew dst
Ġnew root
Ġnew offsets
Ġnew attrs
Ġnew optlen
Ġnew bufsize
oc cur
NO FOLLOW
NO FCS
AD HOC
ĠL SP
Ġse ic
Ġse trlimit
Ġse alalg
Ġct m
Ġtmp Result
Ġtmp ql
Ġop tag
Ġto read
lock ing
In Fold
Ġnum bps
Ġnum Devices
Ġnum OfBytes
Ġnum Valuators
EN SE
EN TROPY
EN TPID
Ġdev c
CH G
CT AG
ĠW T
ĠW eight
ic leaf
Ġip Addr
CO WS
ĠV NC
ĠV QP
ET HER
pro tect
Ġti ght
ĠRead Uncompressed
bo ff
for s
Ġkey bit
Ġkey Handle
key iv
Ġtype data
TI L
TI PC
Ġsh or
Ġsh maddr
Ġ"% +
Ġ"% .*
MP X
ĠReadBlob SignedShort
Ġpro cs
Ġid Product
list ent
Ġz Free
RA MS
Pixel Data
ĠH Y
ĠH AN
res ol
Ġsc all
Ex ce
Ex ist
Ex ec
Ġun getc
Ġun privileged
DR OM
log file
CON SO
Ġbp ad
Ġext Index
Ġmax order
Ġmax rate
DI GIS
TH X
LOG RANGE
LOG ICB
Ġcomp rehension
Ġle ase
im iter
Ġcmd str
Ġcmd ptr
entry p
Ġassert Equal
be low
AG ED
AG ENTPID
AG RAMS
Ġas mptr
nc illary
Ġbit depth
Ġbit lengths
us r
ment s
MO OTH
ĠGet Bytes
ĠGet Bit
ĠGet Page
Ġcont pc
SET LK
blk g
SH R
SH IB
md ay
Ġset groups
Ġsp kt
Ġindex w
Ġindex InFold
NE LS
Ġ6 7
Ġth off
Ġnet info
Ġclient str
Ġclient Public
attr ib
Ġlog ic
RO L
To Event
Ġstart ed
char string
ffff f
ĠENO IOCTL
TO C
TO ID
File Bools
Id entity
Data Out
IS ON
tp gt
ĠYY TRANSLATE
Ġold dentry
Ġad obe
Ġinput b
VER BS
Con tribution
String True
ĠRE MAIN
seq num
address ing
queue s
Ġserver key
FO BJ
Ġattr Bools
tmp seek
sub module
object class
Ġdef late
PRO MI
PRO BS
PAR M
Ġresult Key
Ġtag name
pc ap
orru ption
Ġrs opts
Ġlist Length
Ġtile w
Pro to
Pro tect
Ġup val
event report
Ġblock end
dp id
ĠZ w
base dir
Ġbmp data
Ġdec ision
SC ENE
Ġchunk ed
KEY FRAME
Ġdest path
lic ense
Ġsn gl
config ure
Get Token
ĠQ ETH
ONE G
Ġsession key
Ġauth nid
CUR R
REG TYPE
Ġsample Count
Ġfs data
ĠQuantum Type
>- %
Pixels Op
Ġskip size
Ġtx opt
Ġms mpeg
Char Pixel
su ch
Ġgroup ing
Ġnp lots
>(% "
Ġbin hex
ALL INT
TIME O
Ġlock s
iv l
Ġtrans pix
Ġmy proposal
Ġpix Raster
Ġsf tag
ĠTIFF Tile
ĠTIFF NumberOf
trans ited
sec id
Ġbyte ptr
IR WX
Ġrec ent
ĠIn f
ĠIn str
ĠST A
rate limit
Ġ9 9
Ġhash power
Ġ24 0
Ġmd at
RD M
RD MA
Ġfirst malloc
15 0
DEC IMAL
abc abc
QU IRK
Ġoutput b
NAME SPACE
Ġclass name
Ġuse my
Ġsig q
rest ing
Ġsnd flow
PER IOD
zero motion
Add Item
CHAN NELS
ĠRes idue
Ġhost str
36 0
long er
Ġfc r
Ġreal ptr
Ġreal host
term ine
CL og
SUB CONFED
LIST GROUP
FIX UP
mpty set
fast get
cost ing
ĠPAGE NO
RT ERR
Ġmount point
MENT ED
Ġload ing
nex thop
Ġtsk ey
ĠLIB FVALUE
encode d
Ġbi ColorSpace
Ġhw name
Ġneed free
Ġtl size
fl at
PARAM PROB
CI E
Ġ100 000
report ing
DESC R
ĠCHECK INT
ĠCHECK BIT
he ightexpn
hex adecimal
non zero
Ġback wards
-- "
-- <
Ġhid p
act s
last but
Ġshow Help
ized Package
Ġcontent len
Ġgd Malloc
Ġgd Affine
Ġvalid ator
PORT A
Real m
leaf block
Ġprop idx
Not Eno
Ġcd rom
ĠNE GO
ĠFF D
GROUP NAME
ses sed
Ġat tty
Ġpost ed
Ġwait pid
ĠGET VAR
Ġmagic mouse
bb rev
ĠNET DEV
TX F
Ġpack no
HER E
40 5
Ġsave ptr
Ġsave errno
Ġsave segment
pk init
play Tree
Ġon line
sector size
Ġwr iters
21 02
ĠEXIF Tag
parm or
Ġlib raw
Ġtxt Len
TRANS FORM
ĠRun DataOp
05 4
Line sOp
prec ache
Th reshold
ĠUndefined Gravity
Ġdup licate
SM TP
Ġnf cb
warning s
dy n
Dis abled
If Nee
Ġcms Sig
ĠIs StringTrue
PROP AG
PROP OSAL
Ġhard fpu
Ġnonce Old
Ġbu rn
enum er
ĠNF CT
PROT ONEG
EP SF
ugh PixelData
Ġmg list
23 74
NEXT PROTONEG
Save Container
Token izer
Ġpps Id
Ġctr lif
ISE MPTY
Ġlld d
Ġseen Jo
Ġcmap ent
Ġempty FileBools
ALT SVC
Ġeo i
ĠWrite Offset
Ins ert
Ġsuper block
Ġsingle ton
ĠVAR SIZE
ĠVAR DATA
ĠAT MT
Back ed
Ref resh
Ref lection
ĠDelete DC
Ġfm tid
Ġod st
exce ed
discard ing
MAN AGED
Ġla zy
big ger
Ġba cpy
Ġvideo buf
Ġgre hlen
ĠReadD XT
gd Contribution
43 04
calc ulate
ĠRBin File
Ġmer ged
OV FL
bid der
ĠFRAME FLAGS
Ġuns afe
Ġnewp list
phys ical
ĠEF X
ĠCRYPTO CFG
NAM SIZ
ĠTO SHIB
Ġtick len
ifor m
Async With
Ġ", \\
Ġaudio FileName
Ġbzrtp CommitMessage
ĠCOL OR
Ġsds len
Ġcompress or
ĠDis k
ĠSKIP WS
Ġbf ad
Ġmdi odev
ĠPush CharPixel
assign ment
Ġtf rc
ĠPOLL HUP
ĠExpr List
roll ing
ĠInter active
scri b
clamp ed
Ġsubject Public
010 1
Prec ache
Ġcam l
arb ons
xA ncillary
ĠSrc Section
ĠIF NAMSIZ
ĠLZ O
ETH ERNET
Ġbro ker
gx start
Ġsige mptyset
Ġscope Count
Ġxslt Transform
fold er
lap sed
ĠDialect s
Ġnewsp an
deno ising
Ġapple single
bulk pipe
Ġtkey len
ĠNEB TYPE
ĠNEB FLAG
ĠNEB ATTR
ĠEMUL ATE
Overflow Sanity
ĠBLK IF
Ġalts d
Ġsrv Tcp
Ġinfl ight
Ġuni mac
HTML Table
ĠMono Reflection
Ġtkt policydn
Su bo
CONFI R
Ġsyntax error
ĠDump ODB
ĠSocket QueueItem
ĠBlob Info
Argument s
Ġcla uses
ĠSkip PixelsOp
ĠSkip LinesOp
macro s
strl cpy
ulong long
crl f
ĠMAXDATE LEN
Ġhor Acc
ĠRGB Colorspace
Ġjsv Is
UNMATCHING MAC
ĠReadMATImage V
Ġima gf
Ġest imate
FramebufferUpdate Request
ĠMsg ToEvent
Ġscseq num
Ġscseq met
ĠLED Info
ender ing
ĠBit Set
ĠJO URNAL
TERMIN AL
Rule Batch
Ġpend in
ĠEIN PROGRESS
Ġrowblock bytes
My ISAM
aggreg ator
Ġmemb ers
ĠCHUNK Y
Ġanti idle
rela tive
Ġrpmp sm
ĠTrans parent
SETDESCFIELD W
ĠiTab Db
Ġogg pack
ĠOFP ERR
Ġsre len
Ġfo reground
Ġcontro lselector
irr or
ĠgdGet Word
Cred ential
TG SIZE
ĠWh ile
ĠHeap OverflowSanity
Ġjsl GetToken
QUI ET
ulpe vent
printz p
Cor rupted
HAL F
lk up
ĠMail Format
ĠByte DataOp
Ġhosta p
Ġ167772 16
Finish ed
ĠEL FOBJ
ĠBytes Per
Ġ419 4304
ĠLT PRS
Ġkwa jh
ĠInt ent
errorWrite Log
ĠSetColor Op
PUR POSE
Pseudo Header
Ġslo tid
ĠcDel imiter
delim iter
stfrag opt
Ġtfh d
Ġmob ility
chil dpid
Ġcoup ling
ĠStk Id
Ġcherok ee
ignbith ints
declar ation
ĠwDescriptor Length
DESK TOP
ĠTEX TOID
ĠGEMS AFE
TRIG GER
ĠWeight s
ĠHAN TRO
Ġscall id
CONSO LE
ĠassertEqual Int
ĠGetBytes PerPixel
ĠGetBit Context
ĠGetPage Geometry
ĠindexInFold er
ĠclientPublic Value
ĠENOIOCTL CMD
PROMI SE
Ġsngl RuleBatch
ĠpixRaster op
Ġusemy block
izedPackage Data
NotEno ughPixelData
IfNee ded
ĠnonceOld er
SaveContainer izedPackageData
ĠseenJo liet
gdContribution s
ĠCRYPTOCFG A
ĠTOSHIB A
ĠsubjectPublic Key
ĠDumpODB CLog
ĠMsgToEvent Log
ĠHeapOverflowSanity Check
! !
) :\\
0 12
2 11
3 17
7 11
< <
> &
> `
B W
B AG
C ACH
D LL
E OB
E OC
E AGAIN
E FER
F etch
G A
H M
H LIST
H IDE
H ANG
I tr
I CODE
I FICATION
K e
L Q
L CK
M idi
N SR
N ego
O CK
P ol
P SS
P refix
P redictorState
R SVP
R oute
S X
S CORE
S SID
S pan
S uccess
T ls
T GT
U IPC
V CL
V APIC
W CHAR
a of
b aud
b urst
b ipred
c ing
c enc
c ifs
c black
c yclic
c amera
d ch
e fer
e stablish
f ence
f async
g li
g arbage
h ref
h are
i lim
j oint
k addr
k ern
l ba
l zma
m ce
n Error
n bytes
n iv
n bd
o sed
p mod
q op
r map
r ating
s od
s lack
u ref
v ey
v sc
v apic
v oke
w Head
x fa
x state
x copy
y e
y rd
y left
y bc
z i
Ġi str
Ġi timer
Ġi From
Ġs ans
Ġs fb
Ġs tok
Ġs lc
Ġs Ctx
Ġs tell
Ġs tunnel
re load
re ctor
re hash
Ġc ma
Ġc rl
bl ad
er beros
blank line
en veloped
ta ge
in p
Ġp ur
Ġp Dec
Ġp members
de tection
Ġre po
Ġre trans
Ġb addr
Ġb rc
ge ther
ge cos
Ġf pos
rt hdr
Ġ" ="
Ġ" #%
Ġ" ==
Ġn Path
Ġn groups
Ġn results
Ġin l
ad apt
Ġ1 86
Ġ1 77
Ġ1 96
me mal
Ġl b
Ġl h
iz z
Ġe loc
Ġe log
Ġe cx
Ġe lems
Ġo bu
to c
to go
to iovec
to lower
to gether
Ġd max
Ġv data
Ġv sad
th rs
rn ode
Ġg ai
Ġreturn rate
Ġt ms
Ġstr mov
Ġm nemonic
co un
Ġa id
Ġa op
Ġa md
Ġa New
un pred
Ġco lour
Ġh end
ĠS IN
ĠS ound
ĠS LC
int pipe
Ġch ch
Ġcon version
set state
li ke
ĠE IGRP
ĠE SIL
Ġgo str
RE FS
RE LAT
ĠM ode
ĠM ACH
Ġ2 08
Ġk debug
32 7
str iction
AL IVE
do ll
ur lencoded
Ġx cs
Ġx BlockSize
ĠP A
ĠP IN
ĠP SD
ĠC lient
ĠC DC
is I
is lice
ĠR DP
ĠR LM
Ġw wn
DE X
INT F
Ġma ilim
ri o
ption Error
con ta
con struction
con sumer
up ports
if ont
00 2
at temp
Ġdata Out
no s
no ise
Ġbuf Itr
ĠB DRV
ĠB REAK
Ġ4 5
Ġ4 8000
ĠG X
ĠG IMP
ip fix
SI mage
ĠF N
ĠF MUL
per miss
mb mi
ĠD SA
file type
file format
ist ream
Ġnew mss
ne cess
ne are
ne ither
Image Type
Ġ8 2
Ġ8 3
Ġ8 9
Ġ3 08
NO WARN
NO CACHE
ĠL F
MA BLE
Ġtmp file
Ġerror perbit
Ġto Decode
UN SET
UN ION
UN BLOCK
UN PACK
Ġlength Component
In formation
Ġnum bits
Ġcm n
ap du
ĠW IF
ĠW RC
ĠRead P
key len
reg id
reg istration
cmp lx
def er
sp f
ub y
red ir
Ġsh ut
Ġcur rnode
Ġid entity
Ġ"< ?
ac ing
RA F
am ount
LEN GE
mo o
Ġget n
AS O
user s
Ġreg istry
time code
di ms
Ġun aligned
Ġun processed
FA M
CON NS
sb i
12 00
DI SEQ
ok ay
\' ."
Ġstate s
Ġstate ment
Ch ain
rb sp
Ġas name
ĠGF S
ĠO F
ĠO ptionError
Co untry
SU R
Ġread nbd
test list
SH OT
Str uc
Str ICmp
sn r
rev oke
NE VER
page cache
Ġ16 0
sock s
sock len
Re port
IG ADE
Ġcomm unity
To String
Ġio apic
Ġreq d
MS FILTER
Ġcl sid
VER FLOW
Ġinter leave
FO URCC
node info
Ġ12 5
Ġsy scall
ĠX FREE
ĠX FR
ĠX togo
Long ToQuantum
20 1
Ġss f
Ġfp file
Un ix
MT CP
ĠIP C
Ġsub h
Ġro ish
Ġtile map
Ġtile xoff
Ġtile yoff
SP Q
Pro tection
Object Item
Get ObjectItem
Ġmin val
ATTR IB
BG RA
gen pd
Ġno inline
Ġsample buffer
Ġfs id
Ġfs name
FILE TIME
STAT IST
FAIL S
01 4
01 02
REF USED
DF L
Ġproto types
ĠScale LongToQuantum
rege x
MASK ED
buff ered
om any
Ġtrans lated
ĠSA VE
PA RE
ĠEN V
ĠTIFF PredictorState
Ġper ms
head s
go al
go str
go es
cfg data
ĠMO SQ
Ġbyte Str
IR GRP
ĠST REA
24 0
NOT BOL
pri me
ring s
Ġrun src
PRE SERVE
PRE PARE
dup licate
Ġlocal time
Ġlocal IpAddr
QU ICK
Ġbs se
ĠSQL WCHAR
ĠIN DENT
Ġexp n
CR IT
Ġimp arse
Ġus ad
Ġmag nitude
Ġicmp v
Ġca ption
25 3
rep orted
dump ing
host s
ECT OR
server s
Ġnd ig
CC pp
byte a
LIST ENO
PU B
Per iod
enti re
Ġopen ing
cap tured
Ġ64 0
Tr igger
PIX EL
88 8
Ġfmt name
Ġblk s
cred it
sele ction
03 3
fl atten
Ġdy namic
START UP
dbg level
Invalid ColormapIndex
pipe s
Ġsr q
ĠUN ICODE
Ġhas Ext
ĠDEBUG MSG
Sample Group
iss uer
EL L
push string
fr ont
Ġcc d
led ge
SW DEC
imp erson
RC U
Ġic cprof
Ġ". %
SYS LOG
na tive
Ġstack ptr
Ġstack op
Ġuc ptr
MAC ON
pre parsed
Ġpic Size
Ġcblk s
Ġpci dev
>-- %
Ġsort list
AUTO CMD
35 4
Ġpred iction
gr al
Open File
Open Eph
Row id
normal ized
Extension s
vcpu s
timestamp s
Ġpicomp s
FAC ILITY
Ġcms Get
rw lock
ĠSW F
Input Stream
EG IN
FLOW LABEL
dm x
fore ign
Ġll addr
Ġsha res
>= \\
compress or
ĠTH ROW
ĠNL M
Ġdomain pat
Ġpol y
fil t
Ġremote IpAddr
Sy n
BR IGADE
rem ental
ĠrfbEncoding Ultra
DOT DOT
Rec v
27 1
Last Rect
inte gral
Back up
associ ate
Ġdeleg ated
---- ----
mis c
scaling list
POS SIBLE
sel blad
foo ter
Ġgra vey
Ġuns hare
Ġmk vno
:/ /%
DA O
Ġeth tool
final body
Ġcomple x
Ġhandshake Context
And Size
Ġpx NextFree
Ġsds free
DELE TED
Ġpref etch
ĠPC IR
RATE S
ĠExpr Def
ĠNEW LINE
WRONG TYPE
pas ses
Total Length
art if
mech Types
Ġdl msg
Ġling er
ICAL IZE
OPER ATION
Ġ077 77
Ġkern deint
CRED IT
Ġmemp ool
notification s
ĠVpx Interface
initializ ing
ĠiCol umn
PHY S
IFI FO
RAD IUS
ĠFunction Type
ĠChunk Offset
ĠTIO CS
Ġvis ited
ĠmacMsg JoinAccept
ExifMnoteData Pentax
yo ung
dew mod
Ġrecur se
Ġrecur sive
BID IR
extr as
Ġnmv c
Ġlblk no
ĠPCD Table
HOLD TIME
WHITE SPACE
excl usive
watch er
Ġsupp ress
ĠMessage Type
gu ifont
Force Tls
instan tiated
PSN R
Ġcontain s
mbo x
ĠThread Data
AUTHOR IZED
BOT TOM
Ġbests me
STATIC STRING
ĠSIGN ED
Ssl ForceTls
ĠrfbGI IB
Ġequal izer
ĠGtk Widget
CANON ICALIZE
Be fore
TRUST ED
succe eded
Mo unted
iop rio
Ġtod o
GENER ATE
ĠSPLIT MV
CHAL LENGE
ĠFMOV Q
ĠHY BRID
Ġattty pmod
Ke ep
Ġitimer spec
Ġstell aris
ĠpDec Cont
memal ign
doll ar
Ġmailim f
necess ary
neare st
ĠlengthComponent Ident
DISEQ C
VERFLOW S
ĠXFR MA
Ġroish ift
ĠSTREA MTCP
LISTENO VERFLOWS
Ġgravey ard
ĠpxNextFree Block
% (
) .<
) )!=
3 50
8 22
> ;<
> ...<
A H
A mount
A ux
A DED
A lias
B ody
B ounds
B asic
B AYER
C N
C lean
C are
C DEF
C alc
C VERIFY
C MOV
C IFS
C arbon
D FS
D ictionary
E STAT
E PT
F TR
F SSL
F RU
F amily
F cntl
F RELAY
F lg
G H
G FI
G AS
G ORY
G pio
G race
G TU
H or
H al
H iResBoundingBox
I U
I UCV
J E
J MODE
K D
L W
L a
L if
L PG
M um
M LINE
M ARY
M bf
M andatory
N TYPE
N UT
N IS
N CR
N TOKENS
O X
O SE
P X
P CT
P lease
R x
R am
R ollo
S CK
S ide
S ACK
S ep
S MB
S esInfo
S UNInfo
S amsung
T B
T IN
T ERROR
T TLS
U B
U CODE
U FO
U GH
V NO
V CPUS
X IT
X Path
X SMP
X CEED
Z A
] +
a ise
a RSA
a tol
b ts
b Label
c sc
c ture
c seq
c nf
c ross
c ypress
d type
d fa
d log
e per
f ist
f add
f cntl
f getline
f nek
g pac
g sasl
g lyph
h o
h type
h eld
i pa
i kev
i join
i ki
j ar
j quota
k df
k cipher
l num
m us
m mar
m utt
m route
m ni
n ick
n ctx
o ined
p q
p lot
q r
r and
r lock
r free
r db
r inc
r xpmtu
s par
s ERROR
s Re
s pacing
t f
t pr
t select
u data
u ous
v w
v end
v io
v cnt
x m
x pr
x packet
y y
z er
z oom
Ġ ALL
Ġ LOOP
Ġ DEFINE
Ġ DESCRIP
Ġi md
Ġs m
Ġs en
Ġs init
Ġs ound
Ġs df
Ġs params
Ġs mu
Ġs late
re i
re lay
Ġc dp
Ġc addrs
en alty
ta t
Ġp nt
Ġp assed
Ġif In
Ġif Table
se ta
se cts
de al
de block
de mon
de compressed
de limited
de bounce
de termine
ma int
Ġre use
Ġre mount
Ġre ify
Ġb as
Ġb if
Ġb hdr
Ġb bs
Ġb are
Ġb node
Ġb zero
Ġb Is
Ġb unit
ge xp
Ġf string
Ġf all
Ġf cs
Ġf ep
Ġf ret
Ġf lex
Ġf nek
st m
al Max
al Min
al Gain
al Sources
al Precache
al Grace
al Rollo
rt ree
Ġ" :
Ġ" )<
Ġ" `"
Ġn w
Ġn of
Ġn node
Ġn params
Ġn ci
Ġn api
Ġn blks
Ġn items
Ġn ume
Ġn chans
Ġn addrs
Ġn disc
Ġn Select
Ġn keywords
Ġn elts
Ġin arg
Ġin side
ar k
ar ang
ar ators
ad cdc
le ad
le eper
Ġu b
Ġu info
Ġu red
Ġu regs
Ġu delay
Ġu green
Ġu gh
Ġ1 32
Ġ1 11
me p
od m
od ata
Ġl x
Ġl size
Ġl sp
Ġl test
Ġl base
Ġl query
Ġl Resolution
Ġl disc
Ġe iv
Ġe com
Ġe Active
Ġo sb
to cmp
to fs
to image
Ġd info
Ġd if
Ġd ost
Ġv id
Ġv bits
Ġv target
Ġv rules
Ġv mptr
Ġv routes
Ġr set
Ġr mb
Ġr block
Ġr ot
Ġr comp
Ġr avail
Ġr ounds
mp mu
th ost
th readed
ĠN IL
Ġg one
Ġg arp
Ġt dev
Ġt mo
Ġstr test
Ġstr base
Ġstr ucture
Ġm ta
Ġm set
Ġm ua
Ġm note
Ġm syslog
it len
IN ITE
IN COMPAT
co pic
Ġint val
Ġa off
Ġa gent
Ġa Fcntl
un ge
un iform
un necessary
ro i
ag ma
ss a
ss ip
ER ED
Ġh ide
pe s
ĠS se
ĠS im
ĠS can
ĠS UNK
ĠS MIME
xt len
ing Sounds
lse q
Ġde blk
Ġde war
size Do
set page
set index
ĠE M
ĠE CHILD
ĠE STALE
Ġgo ssip
dr ate
ĠM ID
ĠM ED
ĠM mx
Ġ2 12
Ġ2 36
Ġ2 13
Ġ2 35
Ġ2 38
Ġk a
Ġk l
Ġk odak
OR CE
32 4
str cspn
Ġerr buff
>< =<
AL NUM
>% -
do regexec
ST RESS
ST ANCE
Ġx mit
Ġx features
Ġx mep
Ġchar ptr
Ġchar string
AT AGRAMS
ĠP Y
ĠP ass
Ġsta r
ĠC K
ĠC FA
ĠC SR
ĠC RC
ĠC AUSE
is um
is dir
ĠR PL
ĠR CU
ĠR PKI
ĠR aise
Ġw proc
Ġw usb
Ġw dm
Ġret name
INT S
get v
get pfc
arg len
arg size
LE S
LE AD
ĠI ER
ĠI OM
ĠT T
ĠT MS
Ġne lems
data p
as ound
Ġpa Checksum
if else
ĠA d
ĠA AC
ĠA NUM
SE NS
at ty
PR F
PR KEY
Ġq h
cp up
cp rinc
pr f
Ġfor warded
Ġbuf lo
Ġbuf In
Ġbuf sz
Ġbuf Ptr
Ġbuf Out
ĠB e
ĠB EGIN
LO ADED
64 00
ĠG UID
TR C
ip sets
Ġyy ptr
Ġyy lloc
Ġyy backup
Ġyy setstate
sg map
Ġen tire
Ġarg toll
ĠND ADVLEN
ĠF ST
ĠF string
ĠF HDR
ĠF ail
ĠF PU
ĠF ield
ĠF RIB
ĠF ETCH
ĠF HD
mb im
ĠD XT
ĠD QC
Ġres idual
Ġnew addr
Ġnew In
Ġnew opt
Ġnew item
Ġnew zone
Ġnew cmptno
ne igh
ne utral
ra ph
Ġ8 6
Ġ3 000
Ġ3 18
NO IO
NO TIF
NO ENTRY
ĠL QL
ĠL ens
ĠL HA
Ġse ig
Ġse amless
Ġse skey
sh if
sh ader
rc ache
par s
Ġct info
Ġtmp link
Ġtmp bsz
Ġop name
Ġop thdr
UN Image
UN CE
UN DO
UN MD
read bytes
Ġnum str
Ġnum bands
ID RP
dev num
Ġdev r
Ġdev id
CH LD
ap pe
ap enalty
mm io
Ġcp id
ĠW C
ĠW OL
ĠW CHAR
ĠW ARM
Ġtr b
Ġtr ies
Ġtr igger
Ġvalue string
Ġvalue CRC
Ġip rim
CO RED
ET S
ET X
pro vided
Ġkey ctl
Ġmem op
Ġmem toll
po is
po ke
key map
reg ator
ĠU ART
ĠU HID
BU RI
BU CKET
Ġname URN
TI CK
sp c
ub tree
red is
Ġsh adow
Ġsh rink
Ġ"% [^\\
col cd
Ġsock c
EX IF
EX HDR
MP D
ĠReadBlob Block
Ġopt xtlen
Ġpro cesses
ĠPy Tuple
Ġcur from
Ġcur level
fs um
Ġid type
Ġid Vendor
Ġ"< --%
ac tivity
Ġz size
Ġz coeff
RA SL
Ġfile line
Ġis alpha
Ġis atty
Pixel Thread
BIT RATE
hdr s
ĠH P
ĠH OT
ĠH MAC
Ġal cf
Ġal ternate
res idue
mo bility
Ġget data
Ġget sib
AS C
AS CONF
Ġsc enes
time d
Ġline cmp
di stribution
Ex posure
Ġpr agma
log buf
em er
em ulation
Ġext ensions
sb y
Ġmax p
Ġmax val
DI FLAG
\' )..."
Ġcolor Table
LOG ITE
LOG BUF
Ġcomp parms
Ġsrc X
Ġsrc Y
ĠK D
ĠK DB
AP Key
ĠAV INDEX
be Real
11 10
IL Y
IL ITIES
max p
max seg
ĠO LSR
MAX IOV
>( "
Ġbit buf
SU AL
Ġread ing
Ġread count
ĠGet ImageProperty
ĠGet System
ĠGet Payload
ĠGet Word
ĠGet Boot
SET ATTR
SET GID
Ġ5 5
Ġ5 50
ft one
Ġset sid
Ġgf ex
ĠY ES
Ġindex count
NE P
NE Q
rec seq
NUM BITS
Re jecting
Re gexp
Ġcomm ents
Ġclient db
Ġlog i
OF PB
index ed
ffff ff
Ġio asc
Ġio trap
Ġio asa
OL UTE
Ġpu c
CHECK LIMIT
vm entry
File sizeDo
new mv
Memory Overflow
IS FIFO
ĠYY NTOKENS
ĠYY TERROR
Ġver f
Ġold un
Ġold code
Ġold node
Ġold uv
Ġold fixed
Ġold St
Ġold zone
Ġold dquot
ca path
Ġad vert
ĠTR ACK
Ġinput len
De tect
De tected
Con n
Con tain
desc buffer
String Equal
ĠRE DIRECT
seq count
seq retry
Ġref ptr
decode Direct
off screen
FS B
Ġbo unce
GET OPT
GET FL
Ġpos defaults
Ġserver Port
ĠJ BD
Ġ12 2
sub maps
sub classes
order s
ĠX COPY
ĠX BM
rd mult
Ġcode s
Ġcode type
gra b
Ġtag list
check Session
Ġss at
MODE L
Ġjs Code
Ġhandle stream
ĠIP X
Ġsub ctxt
da o
da maged
Ġbase s
link er
link age
Ġro size
Ġro mem
Ġmod ify
Ġmod ification
10 41
Ġmp c
event enable
Ġ32 0
Ġusb if
Ġusb net
tl ut
tl bu
cmd f
ule ft
au drate
Ġdec ls
Ġdec Input
Object Manager
Ġpriv sep
Ġyyv sa
uid l
Ġdesc r
Col l
Col s
Get Value
ĠQ nil
UINT FAST
ĠMAX HOSTNAME
ctl y
Ġbits PerSample
Ġpe ers
REG ADR
orted Bounds
Ġno resume
Ġno ctty
debug regs
Comp ute
DO REDIRECT
Ġfrag size
Ġevent Type
04 1
Ġra comp
Ġra kcipher
rect angle
Ġtest list
open ssl
eff gz
Byte Count
iter ating
Ġsz Encrypted
Ġsz Com
Ġtemp Height
ĠINT L
ĠINT ERNAL
ps printf
tile length
auth ority
fe fe
Ġseg len
Ġtotal Offset
Ġmy name
Ġiov len
Ġpix format
ĠSA A
ĠSA FI
Length And
ĠEN TRY
Ġper block
Ġbyte count
Ġrec verr
ĠIn voke
ĠST ORAGE
Ġformat str
Ġ24 6
Ġmd dev
NOT NULL
Ġtcp v
Ġrun es
PRE X
Ġsg map
Ġsg entry
Ġep ds
Ġdevice Object
Ġpkt num
Ġpkt cnt
Ġraw len
Offset HS
Ġnb bit
QU AD
old name
old root
proc len
Ġadd on
Ġsend ing
Ġtu be
Ġsig buf
Ġsig file
Ġpd g
Ġpd qp
Ġpv Length
Ġstring len
Ġmatch ed
LENGTH S
Ġus H
Ġmag fact
Ġsocket path
ite cture
SA MP
Ġap pl
CB C
Value AsString
Ġcs ptr
Ġpg u
Ġpg state
Ġpg md
Ġpg ms
Ġpg prot
76 3
ĠWaveHeader Format
si bling
INC ORRECT
Ġcb Buffer
Ġcb Bits
Path name
os ition
os copic
36 60
Ġns vs
ĠMax Index
ĠMax imum
Ġreal dir
Ġtimer s
Num Channels
Ġrx q
Ġrx Buffer
AUTH SOCKET
shift d
aff inity
cept Handler
BUFF ORCE
Se arch
mov able
CMD ID
Ġlua F
CTL MSR
LOW ER
Ġflag bits
Ġchan tocmp
Per mission
ĠPAGE FLAG
Ġan tialias
34 4
ched ule
Ġar row
Ġar mpmu
RT L
RT TIME
Ġfh p
qp el
ure Type
Ġtran sp
Ġglobal object
Ġobject Type
Ġclose st
Ġclose dir
Table s
CLE AN
fc n
over write
Ġhttp Client
ĠRT MPPacket
HO LE
Reg ular
Reg istration
DIS CONN
ĠCHECK LEN
ĠCHECK ED
Ġxml Generic
Ġsel name
sem undo
MI STAT
>{ }"
Device Object
Ġrange bits
keyring s
ĠSIG QUIT
ĠSIG CHLD
Ġaux count
CONFIG URATION
Tra ce
FL T
ĠRe verse
Ġgd t
Ġvalid steps
PORT D
Ġassoc len
Real LoopingSound
ĠCon tribution
Not Match
True Color
Ġtm f
Ġalt cprinc
Ġpartition Map
source s
13 05
Ġpost fix
Ġfn he
ĠGET BITS
Ġ17 4
Ġli boff
Ġcifs SesInfo
Channel Mask
Item s
TOR PROTOCOL
>/ ^
>/ \\\\
FD PR
Ġcsum mode
MAC RO
pre tran
Ġsplit buf
56 5
ĠUstr chr
RX F
WM M
krb Last
krb principalname
Address IPv
Ġon eline
Ġgot end
full host
full uri
ĠSTR CMP
Ġgp n
Ac tual
(% .
Ġrw lock
Ġdccp s
05 3
INV LPG
IX GRP
Ġ19 0
FRAG MENTS
REAS SIGN
ĠData Ptr
Ġfinal body
Ġprot oname
lar val
Ġrpm te
BL UE
kdc PkId
Ġcx io
Ġvq s
sym links
Ġdrop pable
ĠIs BMP
100 000
resolution s
ĠGP IO
Input Devices
upt odate
Ġbu iltin
Ġlz ss
Ġcu rto
Ġurb info
ĠREG SET
ĠVer need
TIFF memset
Ġll buff
RSA ES
pg c
ĠNL MSG
Var iant
ĠpW ith
Ġdomain len
pop ping
Ġpol str
ĠPro beReal
tc x
tc y
tc pip
Ġover read
Ġfull pixel
patial ize
Ġpoint ZZ
07 00
Sy s
ssh buf
apic v
Ġctr n
Ġvs alt
Ġsnap end
Ġdbg regs
Samples Bytes
HASH CHAIN
DY LD
Ġcmap d
Ġbind ing
Loop ingSounds
Ġgener ation
Sound Buffer
SINGLE STEP
Ġupper dentry
cut through
Last Char
Ġbmi Header
inte resting
POP CNT
ĠAT MS
Ġou tofs
CREATE AND
hi erarchy
cos ine
SEG MENTS
Ġ23 7
Ref Size
ĠSG IDe
Capture Samples
Ġsv cauth
Ġdn len
chain s
Ġfm topt
Call Function
Ġod id
ĠTEMP LATE
Process ing
exce pthandler
MAN AGER
Ġdiv x
ĠFOR MAT
Ġintr apenalty
FR ONT
Ġfat s
Ġqalc OpenDevice
Ġserv Name
LU MA
Ġba z
ROW S
istent FileId
ĠszExt List
ORIGIN ATOR
Ġsamp per
NP N
Ġyyerror lab
Ġpkg len
sin pi
Ġpoll fd
ĠpSub Src
ĠAUTH Z
ExifMnote Olympus
Ġunpack er
PAD DED
detail s
success fully
Unsigned Short
Ġnfc id
ĠNet Buffer
IND ATAGRAMS
ĠObject Attributes
bucket s
Ġsame dtype
Ġvn aux
Ġreference d
ABS OLUTE
1616 1616
Ġbss List
ĠReadProperty UnsignedShort
Drive Size
rfb GI
some thing
MAY SHARE
Ġdoc len
we en
Ġgeneric PartitionMap
Sw izz
ĠSWAP SHORT
SF W
Ġgif getc
Ġexpand Regular
GN U
Local Sound
sen sor
FH SR
ENUM BER
ipe Async
ĠDOUBLE STAR
BY E
PSD String
ĠSrc List
ĠClass Sig
UNEXPECTED MESSAGE
BM CR
BRO KER
NSV S
NSV f
OPER ATOR
ono chrome
Ġriff hdr
quick ref
Types IfNeeded
Ġforward able
Ġmpi help
Cursor Shape
unparse d
ĠDevice Path
Wr iter
ĠCAF ChunkHeader
EXACT MB
bas is
pref erred
ĠpE APKey
SQ LExec
ether dev
Ġnic Tx
ĠCheck MemoryOverflow
BBBB BBBB
Ġtre x
strn cmp
TIM XCEED
ĠpF Key
nfs d
ĠpT arang
ĠRep ortedBounds
Ġsubtree len
ĠPIX EL
Ġvpd len
Ġbfq d
ĠWE BS
ĠWE XIT
PROGRAM MABLE
Ġneeds CRC
Find Next
SUBSC RIPT
subopt len
hmac Sha
rfc v
ĠRW PNG
ĠBuff len
Ġasm linkage
Compress NotSupported
Ġpva ctx
Entity Position
Ġsynchron ous
Ġscanlinesize in
Ġscanlinesize out
Startup File
Ġgraph element
TID S
Ġlin enr
\\":% "
ĠDISPLAY ED
xFFFFFFFF U
IRO TH
]* )
AGGREG ATE
Ġrk pp
%+ .
ĠPV A
ĠFlo or
INCLU DED
Crypto TypesIfNeeded
bt n
Ġgood return
ĠPROP OSAL
Ġhor Diff
PRIVILE GES
ĠphaseInc rement
instan tiate
UNMATCHING HASHCHAIN
Ġparsefh n
SCHE MA
eo i
decomp osition
susp end
ĠTIFFRead EncodedStrip
ĠMaxGIF Table
ARGU MENTS
ĠCAFChannel Description
VO IP
Ġwe bs
DIM STYLE
ĠTIME PREC
Ġlocalpal size
Ne ighbor
Ġreorder nsm
ĠEIN A
Quick RefSize
Ġbests avings
alAvailable Devices
alAvailable InputDevices
Ġvdup q
ĠClear Page
ĠBcm Flash
Vis ual
cas cade
ĠPyMemo Table
Mon it
ĠDECODE LENGTH
Ġcube map
Ġchroot dir
Ġjunk chunk
Ġcomputed H
Ġbcd Device
Discard s
ĠQuery Color
ĠColorSpace In
ĠExp ression
ĠFull FileName
Ġnumlen tries
PREV IOUS
DAT ETIME
Ġnli bs
vect ored
Shif ting
ĠbiRed Mask
ĠbiBlue Mask
ĠbiGreen Mask
hij ack
cmsRead UInt
ĠTGARLE Colormap
ĠFO URCC
ĠENET UNREACH
ĠProfile Integer
IMPLE MENTED
PAG ENUMBER
Ġsmt pc
umin ance
MAINT AINER
ĠReadS UNImage
ĠReadPSD Channel
ĠDelegate Info
FromString AndSize
ĠHIDIOCG USAGE
Hold ing
bet ween
STE AL
ĠPers istentFileId
Ġquantiz e
ĠBIG NUM
ĠVOL UME
Ġauthinfo len
COMPOS ITOR
Ġ245 76
OA EP
six tap
reserv ation
Ġnib ble
ĠSPE ED
Ġyam drv
ĠPack et
Ġexcl usive
AddNumber ToObject
slur p
Ġproxyauth str
Ass ert
fraction al
Ġsfs name
Ġcum fr
INDEF INITE
Ġagg regator
Ġmakernote s
ĠVO IP
Ġswab Hor
krbticket policyreference
Forbidden Chars
evnt len
ĠpatternZRTP MetaData
Hand ling
ĠiB reak
ĠNOR MAL
ĠMap ping
ĠPASS WD
ĠCATE GORY
ĠdataIn Size
PROPAG ATE
enumer ate
ĠxsltTransform Error
ĠjsvIs StringEqual
ĠjslGetToken ValueAsString
ĠBytesPer Second
Struc tured
artif act
Ġcontains ForbiddenChars
Hal ftone
Mum ble
Mbf ld
Mandatory CryptoTypesIfNeeded
Ram disk
ĠDESCRIP TION
Ġimd ct
ĠifIn Discards
Ġbif ilter
Ġbhdr p
Ġbare jid
ĠbIs Dir
alMax Distance
alMin Distance
alGrace Distance
alRollo ff
Ġnume xpr
ĠnSelect Row
adcdc de
ĠlResolution Ptr
Ġeiv len
ĠeActive DSD
Ġrot bit
ĠSUNK BD
setpage device
ĠMID Q
ĠMED CLASS
Ġcharstring name
ĠCAUSE F
ĠIOM MU
asound rc
ĠFstring Parser
ĠFail ureType
ĠFRIB IDI
ĠnewIn ode
ĠWOL FSSL
CORED UMP
BURI ED
PixelThread Set
LOGITE CH
ĠGetSystem Drive
FilesizeDo NotMatch
ĠoldSt retch
ĠREDIRECT LEN
ĠXBM Integer
ĠMAXHOSTNAME LEN
ĠszEncrypted Key
LengthAnd FilesizeDoNotMatch
ĠInvoke PostscriptDelegate
ĠMaximum Length
Ġchantocmp tlut
ĠxmlGeneric Error
ĠReverse PSDString
ĠContribution Type
ĠProbeReal DriveSize
Ġoutofs ubtree
ĠSGIDe code
Swizz led
ĠnicTx Event
ĠReportedBounds Error
- <
2 14
2 70
3 01
3 88
3 75
A live
B ro
C X
C alloc
C String
C oding
C DF
D AR
D INODE
D UMMY
E SN
E FE
F UT
F ONT
F UTEX
G tk
H R
I cy
L N
L anguage
M TIME
M ain
N AA
O s
O CI
P ps
P lugins
Q CR
R andom
R ename
R xDone
S AN
S Name
S cope
S tore
T Z
U AL
V D
a comp
b ench
b istream
c la
c ib
c atch
d word
d ropping
e hash
e valuate
f lock
f lip
g w
h inter
i ents
k pp
l in
l ut
m co
o e
o ssible
p addr
p res
p tagged
r rno
s il
s fb
s ound
s quare
v pl
x be
x ef
x AA
~ '
Ġ DELALLOC
Ġi ke
Ġi Offset
Ġs cp
Ġs nt
Ġs ra
Ġs mc
Ġs chro
re uid
re ject
an sport
Ġc ct
Ġc ac
Ġc mask
Ġc losing
er sion
ta rea
ta ke
in active
Ġp reauth
Ġp Downmix
de ath
ma terial
Ġre tu
Ġre la
Ġre code
Ġre dir
Ġre verse
Ġre ject
Ġb mode
Ġb cnt
Ġf rp
Ġf tm
Ġf sgid
st p
rt her
rt cd
Ġ" >
Ġ" ****
Ġin tegrity
ar ser
Ġu o
Ġl n
Ġl ix
Ġl sh
Ġl printf
Ġl ab
Ġl fc
Ġl ba
Ġl ins
Ġe q
Ġe at
Ġe poch
to le
Ġd list
Ġd pl
Ġv time
Ġv iv
Ġv eth
Ġr st
Ġr db
Ġr uid
Ġr result
Ġr limit
mp rintf
id er
Ġt fi
Ġt sel
Ġt stype
Ġstr array
ce l
IN FILE
IN USE
Ġa verage
Ġa tol
un reference
ag ing
\\ \'<
ata ble
ch op
Ġh seq
Ġh ls
Ġh query
pe i
pe ction
pe bs
ĠS UM
ĠS oft
ĠS csi
li ed
li es
li bc
ĠE O
ĠE PROT
RE DEL
RE NEGOTIATE
ĠM ag
ĠM ul
ĠM alloc
Ġ2 99
Ġ2 26
Ġ2 30
Ġk p
Ġk erberos
OR KER
str ipe
ĠP SLICE
ĠP oint
ĠC D
is digit
ĠR xC
Ġw w
Ġw Flags
Ġw TotalLength
Ġw vpl
DE MUX
get targetinfo
ĠI MR
ĠT U
Ġne utral
IT U
as semble
if lags
il li
il dc
ĠA PE
Ġ' ~'
00 5
00 11
Ġj ust
SE COND
PR N
PR AG
Ġq str
AC CT
ĠB US
Ġ4 9
Ġ4 20
Ġ4 03
64 0
64 7
fa b
ĠG roup
ĠG RID
ĠG OOD
TR IED
TR OUTE
ip le
ip he
sg desc
AR B
Ġarg j
ĠF IB
sc Index
per form
ĠD wg
ist ortion
Ġnew BitMask
oc s
put char
Ġ8 6400
Ġ3 17
Ġ3 54
Ġcol len
NO TE
NO ENT
NO DOTDOT
ĠL I
sh ip
LA X
LA RED
UN DEC
UN CONNECTED
UN AVAILABLE
UN AUTHORIZED
In line
In Col
In struction
Ġflags Length
ID TR
block count
CH N
add name
free iov
ĠW ork
ĠW arning
ic ients
num colors
Ġip cp
reg ulate
reg istry
io apic
Ġname buf
Ġsock path
one ous
qu it
Ġopt p
ĠPy PARSE
Error s
Ġz lib
RA M
RA X
Ġis L
ĠH int
Ġcpu time
Ġcpu mask
Ġal og
AN E
out bound
Ġsc v
time wait
di rector
Ġpr vpn
DR C
Ġbp c
Ġmax clients
DI FY
Quantum To
Ġcolor A
low est
Ch ild
cpu mask
im s
AP NG
BITS PER
start block
nc m
image length
max memory
ĠO VL
MAX IMUM
>( =<
Ġread ers
pp flags
Ġ5 9
blk dev
ft m
Ġset param
Ġ6 0000
Ġ16 2
Ġmb r
UR B
sock name
Re verse
Re covery
sy mb
02 1
attr map
Ġac cep
Ġac cel
RO LE
Ġstart up
ĠENO ATTR
ĠENO EXEC
IF INDEX
IF SOCK
IF CHR
new p
Data gram
IS CO
DEBUG GER
000 1
000 4
Ġargs z
Ġold pc
Ġad vmss
ĠTR UST
tal l
ĠRE SERVE
264 0
CODE BOOK
Ġinter active
Ġinter cept
ĠJ BIG
ĠDe scIndex
NT S
20 3
Un handled
Ġsub pool
CP UID
Ġpacket Length
ENT ITIES
Ġmod data
Ġup vals
base line
ĠIS NEWLINE
Ġdec Inst
KEY MAP
Ġdesc q
Ġdesc len
Get Samples
ĠQ R
dc cp
ĠMAX ALIGN
ATTR S
Ġauth data
Ġ10 7
Ġbest newp
Ġvma lloc
Ġtx q
Ġms a
ĠINT EL
Ġor phan
Ġdis associate
ĠScale QuantumTo
Color Table
ĠAc pi
ĠAcquire StringInfo
cb Size
auth ent
Ġpix m
PA USED
ĠTIFF StripSize
MD B
ĠMO DIFY
Ġrec len
seg mented
ĠST F
OUT OF
with item
DC S
Ġpeer key
Ġ24 4
Ġmd l
bin s
VM X
15 4
Ġep read
Ġep write
Ġlocal key
ĠpS creen
Ġpart no
NAME D
Ġrfb GIIValuator
ass igned
>[ <
rl c
root fs
prefix ed
25 0
Ġpg x
PM U
Ġgr id
IM F
Ġff io
PG ID
En abling
IV EX
step size
ĠAR PH
timer s
Ġqueue s
ĠMax Len
Ġsd scat
Ġmeta size
Ġ15 9
by t
rcv intpipe
too th
Ġrx BlockSzx
Ġge o
Ġdb num
CMD LINE
CMD IDX
stat fs
Per Tick
Format Tag
ak cipher
sq r
34 6
Tr ansport
ACE HOLD
ĠPG EN
found er
Key File
Key Len
Ġtable s
sql state
BE FORE
DP X
Ġbi as
Ġbi Alpha
802 3
Ġhw tstamp
77 0
Ġhttp Set
Ġind stack
START TLS
Ġpri or
DIS ALLOW
DIS CONNECTING
State Reference
sw event
VAR S
exec utable
No tification
CHANGE PW
Bl ank
wh ence
Ġbr k
ĠCon stant
Is Encrypted
RET CH
ĠMAC ON
NEW CGROUP
signal ed
/% .
Ġet t
Ġtimeout s
Item String
app le
Ġsection s
krb pwd
Bit Stream
Ġabs olute
Block Align
CONTROL MORE
Signed Path
note len
CRE DENTIAL
Ġpf key
Ġhook num
ĠrfbClient Err
std dev
Ġdiff Block
FRAG FAILS
Ġdup lex
PL ACEHOLD
Dis position
XC OPY
ĠZIP FILE
REACH ED
ds ch
>! \\
Ġact config
Ġsele ction
ĠREG ION
Cur ve
Ġsha pe
Sub Format
Sub sampling
ĠNFS D
ĠNF P
split res
endpoint Address
UnableTo Decompress
crypto ctx
Ġsafe putchar
Ġbw l
Ġmon th
ĠVAL ID
Ġnump lanes
Ġnump ocs
termin ated
VALID ITY
DROP S
function al
Ġdim s
QUAL IFICATION
FULL SCREEN
switch ing
attach ment
ĠAT USB
Ġrule s
Ġfixed type
AY LOAD
transfer red
ASS OCI
Ġclock div
Ġsandbox ed
Ġinitial ized
RESPON D
RESPON DER
Tun gst
MM U
ĠRBin Object
VS upports
security token
entr al
Ġseek table
WINDOW S
success ful
hold time
Ġfork off
By Name
Ġmreq s
VIR T
WRONG VALUE
Ġthiss me
Dest ination
SIGNAL ED
ĠOpaque Opacity
Ġutc Date
HU GETLB
rnd istortion
Ġclip rects
BY REF
HY BRID
TIC AL
expect ing
Oper ation
redictor Encode
Ġopaque dir
ssi bly
ĠVpx EncoderConfig
Ġxslt Compile
sensi tive
SQ RT
ether type
pol kit
Ġlut ents
VIRTUAL IZE
TIM ING
LISTEN DROPS
Rel ative
ĠpT con
ĠpT op
Ġhstore Pairs
ĠHttp Response
subobj s
virt queue
ste mp
ĠAVFilter Context
SYMLINK S
At tempt
DT D
Valid BitsPerSample
Ġchans vs
ĠConcatenate String
qm f
ĠpP ager
RESOURCE S
FrameBuffer Update
EXPI RED
ĠzDb SName
ĠRx Slot
ĠVdbe Op
BytesPer Second
UNDER SCORE
BRID GE
YO UR
Ġfu rther
yuv config
Sec ure
Crypto Status
Ġglyph Cache
EXCLU DE
Mar ker
ONO SUPPORT
iph ers
Ġidle time
Ġquality Level
CRA SHED
Ġhs dsch
ĠGetByte Context
atten tion
ĠSEN SE
Ġnewname p
Ġestablish ed
Ġindirect ICB
Ġjit ter
ADJ UST
ĠPyMemo Entry
ĠSetQuantum ImageType
Ġdataname s
IZ ATION
REL ADDR
Ġmig r
CCITT FAX
Ġnumh prcs
ctr ls
kil led
interlace d
ĠhstoreCheck KeyLen
ĠRESPON SE
ĠsampleGroups Description
Ap ply
Play ing
ĠcoapClient Get
ĠCIR CUIT
ĠfileIdent Desc
Trunc ated
DON TROUTE
Igno re
ĠnOp Alloc
Ġaz ModuleArg
UNRE CO
LinkCount er
iw ht
ĠMAIL IMF
ĠFree Xid
MOB ILE
REQUI RES
ĠLINK ADDR
clo exec
ĠPri maries
ĠTIFFNumberOf Strips
establish ed
ĠdataOut Size
STATIST ICS
ĠDEBUGMSG TL
front end
Syn tax
Ġsdsfree splitres
CN TRL
ĠScan Env
SENS ITIVE
Coding Style
DAR WIN
FUT URE
Ġsra Span
ĠpDownmix er
Ġretu rndistortion
Ġfrp cnt
Ġlsh p
Ġeat line
ĠSoft Cursor
ĠEPROT ONOSUPPORT
ĠMalloc FrameBuffer
PRAG MA
iphe red
UNDEC LARED
ĠWork station
Ġalog file
director ies
lowest delta
BITSPER SAMPLE
GetSamples PerTick
ĠARPH RD
ĠbiAlpha Mask
Ġduplex Mode
PLACEHOLD ER
UnableToDecompress Image
ASSOCI ATION
Tungst en
& "
) )\\
) ;<
, \\
0 51
3 76
3 03
3 77
3 70
4 11
6 11
6 10
7 21
A x
A IT
B UL
B SS
B OND
B uttons
B ANK
C EN
C md
C AM
C SC
C ell
C DB
C STY
C losing
C ENTER
C utText
D ig
E d
E VP
E OD
F s
F GS
G G
G Y
G AIN
G DTR
H V
H op
H WM
H NP
H IND
I K
I t
I ANCE
I ZER
K o
K it
K IT
L CP
L ower
M ult
M FS
M CR
M ux
N GP
N ATIVE
P t
P MA
P lan
P SC
P ipeAsync
Q PATH
R an
R SS
R DF
R SN
R siz
R endering
S a
S or
S AT
S SE
S lice
S FI
S playTree
T one
T FOR
T CLASS
U pd
W BIN
W IPE
W alker
X FLAG
X MIT
X MI
X FRM
Y E
Y U
[ \\"
a fi
a hc
b od
b prm
b uttons
c de
c dir
c path
c NFS
c entral
d k
d temp
d ual
e mb
e fault
e ction
e tiz
f ild
f uji
f anout
g pa
g pr
g lob
g amma
h it
h cp
h our
h ler
h sync
h ang
i ation
i version
i trans
j cc
k ex
k time
l ft
l uminance
m unlocked
n tr
n cpy
n ak
n strips
n agios
o cp
o lete
p ta
p ata
p val
p frame
p skb
q t
q lookup
r buf
r ht
r mdir
s dp
s IPv
s avings
s moo
s leeper
t z
t enc
t Value
t gid
u size
u tils
u verbs
v sync
w lock
w unlock
w eak
x free
x flags
x form
x tract
x iable
z z
z vol
z mq
Ġi sg
Ġi Idx
Ġi blks
Ġs on
Ġs to
Ġs ix
Ġs par
Ġs free
Ġs count
Ġs start
Ġs ib
Ġs ms
Ġs vr
Ġs realm
Ġs ens
Ġs dots
Ġs strncpy
Ġs Walker
re num
re ally
re negotiation
an tialias
Ġc atch
Ġc pat
Ġc ticks
bl er
er ver
er atio
er mes
en tion
en force
in ite
Ġp en
Ġp fo
Ġp flag
Ġp new
Ġp Field
Ġp Current
Ġp ticks
de init
de tached
de bts
on et
on local
ma ble
Ġre read
Ġre key
Ġre transmit
or une
Ġb con
Ġb box
Ġb True
Ġb allo
Ġb Descriptor
Ġb urst
Ġb audrate
ge topt
Ġf j
Ġf st
Ġf idx
Ġf base
Ġf shared
Ġf chown
st ub
al m
al ts
al ance
Ġ" >"
Ġ" ;<
Ġ" ,%
te en
Ġn st
Ġn alloc
Ġn test
Ġn ink
Ġn sub
Ġn mask
Ġn Read
Ġn Cur
Ġn inst
Ġn memb
Ġn Extra
Ġin pic
Ġin dio
Ġin ject
Ġin direction
ar ri
ar ies
le ting
Ġu map
Ġu loc
Ġu link
Ġu ll
Ġu top
Ġu core
Ġu shift
Ġu cred
Ġu sizes
Ġ1 78
me tid
Start tls
Start Sound
Ġl ss
Ġl db
Ġl tree
Ġl ret
Ġl community
Ġe block
Ġe fb
Ġe exec
Ġe mail
Ġe gd
nd l
ck s
ck ed
to ptions
to regexp
to pts
to crawl
Ġd z
Ġd ch
Ġd rc
Ġd block
Ġd word
Ġv e
Ġv and
Ġv io
Ġv pic
Ġv res
Ġv pass
Ġv class
Ġv zalloc
Ġr ta
Ġr nd
Ġr mode
Ġr level
Ġr uby
ff ile
ff mpeg
th aw
th umbnail
ĠN C
ĠN onlocal
id iv
Ġg std
Ġg uchar
Ġt bit
Ġt CT
Ġt mv
Ġt space
Ġt cos
rea per
Ġstr ptr
Ġstr off
Ġstr parm
Ġm idx
Ġm cs
co ok
len Extent
Ġint l
Ġint ype
Ġa tom
un trusted
un acked
ue s
\\ \'
ss RGB
fo pts
ER O
ER ASE
ER EAD
Ġcase op
ch Id
ch oose
Ġco p
Ġco variance
Ġh n
Ġh z
Ġh res
Ġh inter
Ġh conf
Ġh evc
Ġh Profiles
Ġh tole
Ġh ermes
Ġh ndl
pe di
ĠS UR
ĠS EL
ĠS uite
ĠS RS
ĠS Dev
ĠS MOOTH
Ġch n
Ġsize str
Ġcon str
Ġcon sec
Ġcon trl
Ġcon dition
Ġde h
Ġde sktop
Ġde wa
size p
ent size
set n
ĠE IE
ĠE QUAL
ĠE ALREADY
RE PRESENT
ĠM ONO
Ġ2 11
Ġ2 18
Ġ2 94
Ġ2 74
Ġk file
Ġk ret
Ġk vas
Ġk strdup
Ġk fifo
Ġsk r
of ile
end ir
str at
str ate
str sep
Ġy res
Ġy cs
AL IAS
Ġx res
Ġx image
Ġx open
AT CHED
AT ASO
ĠP CHAR
ĠP OS
ĠP DEVICE
ĠP MC
ĠP USH
ĠP AGER
ĠP AYLOAD
Ġsta tp
ĠC a
ĠC IF
is crlf
ĠR IP
ĠR Buffer
ĠR OT
ĠR FB
ĠR KC
Ġw ifi
Ġw ould
Ġw iki
ul us
Ġma pi
ri be
get name
get env
get frag
get dbglevel
arg check
LE V
ĠI SLICE
ĠI ssRGB
ĠT AR
ĠT String
ĠT OC
ĠT uple
Ġne b
Ġne gate
data base
con current
con fopts
Ġpa mode
Ġpa csize
up tr
ĠA FI
ĠA EV
ĠA SIC
Ġj a
Ġj f
PR DR
PR UNE
Ġq type
Ġq start
Ġq step
Ġdata hdr
Ġdata off
Ġdata cnt
Ġdata Offset
cp sa
no listen
nt sty
pr keys
pr oduct
pr cx
pr cy
Ġout buff
Ġbuf list
Ġbuf hi
Ġval sz
ĠB ASE
ĠB utton
ĠB lack
Ġ4 3
LO SC
ĠG st
ĠG MPLS
ĠG HashTable
ĠG Variant
ble ms
TR OM
ip vs
Ġvo c
Ġyy parse
sg i
AR ITY
Ġst s
SI MM
ĠF G
ĠF loat
ĠF LASH
sta ddr
per c
mb ient
ĠD LS
ĠD SPQ
ĠD hcp
ĠD ATASO
Ġres end
Ġres ample
ixel s
Ġnew err
Ġnew Len
put l
put m
Ġ8 5
Ġ3 16
Ġ3 11
Ġ3 48
NO SPEC
NO HUGEPAGE
print n
print ts
ĠL argest
try bin
ex c
ex arg
ex per
ex act
ex tran
ex pedi
LA UNCH
Ġtmp env
Ġtmp cdir
Ġto wer
lock states
UN HANDLE
UN GREEDY
Ġlength Extended
In Chunk
In Current
In fin
Ġnum layers
Ġnum ones
Ġnum lut
Ġdev zvol
CH MOD
add q
free inodes
ĠW AIT
ic ap
num layers
Ġtr ay
ĠV IM
ĠV CL
ĠV ips
ET YPE
pro blems
ĠRead WPG
Ġobj id
Ġmem Pool
po ssibly
key space
ĠU AC
ĠU RB
ĠU BI
FI B
sp u
Ġsh eight
Ġsh ml
Ġav codec
mode ls
MP T
MP ixels
Ġta p
ord inal
Ġpro xiable
list ed
Ġz Input
Ġptr ptr
RA ND
Ġfile map
Ġfile path
Ġfile off
Ġfile mess
Ġis r
Ġis nan
Pixel Method
Ġpi colcd
ĠH unk
ĠH SR
AN TIAL
Ġcount data
Ġget This
Ex port
Ġun comp
Ġun mounted
Ġpr une
Ġpr inted
FA udio
log book
CON G
Ġmax Filename
Ġpar c
Ġass ocp
Ġtok buf
DI STANCE
Ġfa ct
ts z
TH EN
ab i
Ġstate size
ber s
LOG L
Ġcomp size
Ġcomp mode
Ġcomp proto
Ġsrc dev
Ġsrc Addr
Ġrow stride
able PartitionMap
ĠAV Dictionary
write mem
write config
write back
Ġbuffer size
Ġbuffer Pos
Ġas sem
Ġas pect
ĠO PR
MAX PUT
Ġbit flags
us m
vel y
SU BLE
SU SPE
Ġread file
Ġread word
ĠGet Cipher
Ġcont len
test ed
SET S
SET LOCAL
Ġ5 7
Ġ5 08
Ġnext cg
Ġnext Depth
sn b
Ġset ype
Ġset buf
Ġset env
Ġset jmp
UT C
ance stor
Ġpath file
Ġpath Component
dis allowed
dis pose
NE TROM
IO Data
Ġ16 000
Ġser des
Ġmb c
min imum
Ġth rottle
Ġnet Event
rec ache
rec ycle
NUM BYTES
IC ANON
Ġuser p
Ġuser s
Ġuser sp
Ġuser nic
02 2
02 3
attr len
Ġprint ing
Ġprint Here
Ġac rs
comp iled
comp ose
Ġbytes wap
RO UGH
To Little
Ġio base
LOCK ING
ĠENO MSG
ĠENO MEDIUM
ange fs
IS C
IS M
IS SET
av c
Magick Resource
load er
ph ase
ATE CW
Ġver bos
Ġold locale
LI VE
Ġbe resp
Ġbe strate
VER TI
Con stant
Ġ7 6
Ġ7 8
desc ribe
pos sessed
ĠRE SIZE
ĠRE MOVE
Ġsun rpc
Ġlast Part
xc nt
xc rs
Ġbo olean
Ġnumber s
Ġpos args
Ġattr id
Ġattr Time
ĠJ id
ĠJ CC
ĠJ BUFFER
Ġ12 1
SK EY
ĠDe tect
DATA REF
Ġrd maltWithLock
req sk
req tfm
NT LM
20 7
gra tion
pc alloc
Ġss i
Ġss im
Ġport no
Ġrs iz
Ġrt c
Ġrt msg
comm ents
Ġsub scribe
chunk len
Ġbase type
10 10
copy right
Ġup np
GP MF
Ġblock p
Ġusb path
Ġusb Path
ĠIS ALNUM
LIN ED
KEY PAIR
Ġdest Addr
OPT MASK
ep u
ĠQ TYPE
ĠQ MFB
INVALID MESSAGE
Ġloc val
Ġauth str
Ġauth Context
ms w
Ġpe ak
Ġ10 3
Ġno match
Ġthis mb
Ġdebug len
Ġdebug log
skb ar
Ġ25 3
01 8
Ġskip first
Ġskip white
eff ort
Ġregs pacing
Ġsz Title
Ġsz Sep
Ġtx Buffer
Ġtx tail
Ġtx BlockSzx
MUL B
Ġfl c
ĠINT OUT
Ġor angefs
>\\" .
Ġtc cps
Ġdis patch
>(% #
Ġproto type
Ġsign alg
back ref
Ġbin obj
frag size
cc d
cc lass
skip mb
Ġtarget str
ĠAcquire MagickMemory
ĠAcquire MagickResource
cb c
auth type
Ġcheck ers
Ġcheck point
Ġcheck stack
Ġpid str
Ġpid strbuf
:% "
iv size
request ing
Ġtrans id
Ġtrans it
SR B
SR V
ĠSetImage Gray
Ġpix b
Ġpix mb
Ġpix mg
ĠTIFF Current
pha Quantum
ĠStr cat
Ġper l
Ġparent dp
trans it
trans formed
send Failure
flow ctl
Ġhead is
IR ON
IR UGO
08 0
BO LS
ĠIn struction
seg data
DC BX
work ing
mod ifier
Ġhash Alg
Ġ24 48
Ġmd counts
bin header
bin vd
Ġhex val
Ġparse time
Ġparse status
RD S
pri se
Ġfirst char
Ġfirst Sample
Ġtoken pos
Ġsa io
Ġdevice Path
Ġdevice Spec
Ġraw Socket
dup cook
Ġlocal host
Ġlocal ExtIndex
Ġnb r
ĠSQL Free
ĠSQL INTEGER
SO C
SO V
Res tart
Ġadd Module
Ġadd MandatoryCryptoTypesIfNeeded
Ġaddress Family
Ġsend to
Ġtu ning
Ġtu rtle
Ġsig m
Ġsig ill
CR NL
Int s
EV B
Ġsocket pair
PER SIST
Ġleft Limit
ĠPR INC
uc m
Ġcs i
sign um
76 0
Ġuid l
Ġuid next
Ġsys id
50 57
si ocb
INC ASE
Ġcb g
Ġcb arg
Path Pattern
ĠERR NO
36 3
Ġns own
Ġpk tsz
Ġ"[ "
>\\ \\"
>\\ \'%
Ġsd y
war ran
Module s
rece iver
eg acy
Ġlink State
Ġrx hdr
Ġge trlimit
input s
CC CC
RES SIVE
OFF ERED
trl one
Ġdb stmt
SIG ALGS
CL K
Ġmac CryptoStatus
Ġbad fmt
SUB VOL
GB RAP
label s
Ġan um
total len
34 7
serial ize
Ġmount flags
Ġts value
found ers
Ġactive Pps
Key Info
Ġexec vp
Ġblk off
VERSION OUT
BE HIND
wait ers
Ġfield length
Ġhw sim
Ġhw ahc
high bitdepth
Ġtl b
Ġipc m
fl atpak
ALLOC ATED
ĠWavpack Native
ĠRT AX
WAIT END
WAIT LEVEL
Ġsr f
ERT M
AB I
ĠCMD INFO
Chunk s
LIMIT S
State s
Ġxml Str
Ġxml Schema
Ġxml XPath
Sample TableBox
ci sed
real path
Text Length
Ġmc g
non block
non rd
non directories
Ġback p
auto load
Ġui op
Ġui Offset
Ġui Loop
Ġdump ascii
MI UX
MI REGADR
Device Link
Device Ident
SIGN ER
ĠSIG IO
ARG IN
meta int
Ġaux size
JSON P
Ġaf q
ĠLoad WPG
ĠSE LE
FE F
Ġextract Contig
FL AT
Ver def
Ġshow data
tab ility
Ġbr igade
ĠRe f
ĠRe ference
Ġnfs v
UNI QUE
UNI VERSE
Ġvalid ity
PORT B
PORT C
PORT F
PORT G
PORT V
Ġresponse Token
Not Contain
Ġic msghdr
lx x
Ġsas oc
Ġpad ded
GROUP S
section s
multi addr
cr ls
search paths
Ġfe at
13 5
Ġstep size
Ġli bsz
INTER P
Ġnon zero
Ġlabel len
Ġencode pfunc
LINK IF
Ġte a
Ġte x
CIP SOV
disk less
Ġuc ast
curity Mode
MOD ULES
ĠBIT CODE
pre alloc
pre parse
HAND LER
40 96
crypt state
Ġpt bl
Ġplen bytes
Ġloop back
Ġpic Width
bi BitCount
ĠSe curityMode
play ing
receive Message
Ġmx size
Ġ18 9
YUV J
drop pable
Core Back
Ġcr ls
ĠSTR CAT
Virtual PixelMethod
Ġorder Type
pare RxDone
Ġwr perfmon
Ġaccess Time
ctrl sock
literal s
Ġfind alldevs
ANY CAST
ANY END
lib archive
Ġphy dev
ĠCR LF
ĠClose Source
finish get
DIV S
TRANS ITION
TRANS ACTION
Ġpf xcnt
Ġhook mask
Ġcipher TextLength
TIMESTAMP NS
cor ded
LT U
Msg BitMask
cu toff
ĠosStr ncpy
30 6
Ġcli cks
peer name
Ġhi erarchy
Ġfac len
Ġqp el
dy lib
inv oke
VR FY
Ġinf buf
Ġunion Tab
Ġmetadata length
sad idx
Gener ator
Ġmt COVER
Ġsep str
EG ER
ĠPERF MON
Create CoreBack
ĠStart Sound
crea tor
ĠDH PART
ĠDM HDESC
STRU CTED
Vdbe Jump
Ġll chdr
000000 1
Ġcert len
phy r
66 6
Page s
ĠTH A
Ġ30 72
pg path
ĠHandle KeyboardLedState
EP CR
ĠNL BL
Ġtransfer red
Has selblad
Ġinc rement
Arg c
Arg v
UnableTo OpenFile
SUM MARY
TUN ER
Command s
aw ay
Part s
Ġover head
Ġunique ID
Ġunique FILE
ĠMac Params
Save Full
Ġadjust S
Ġall hex
Ġctr ls
ORIG DST
ĠrfbEncoding Tight
Ġmech name
St andalone
Ġright Limit
Parser Context
pw uid
Ġok m
Ġmissing Files
ĠSET WA
Ġkv free
Ġigno red
ĠVAR IANCE
Any ImageData
DS DIFF
ĠInput Addr
Temp Memory
Temp late
ĠSYS LOG
Ġfixed block
Ġsack hl
422 16
xml ns
Ġpts ge
Ġpts fd
single ton
cli cked
Ġ22 9
mk write
ĠNP ERR
commit ting
WPG ImageFile
Trans mit
Trans action
ĠReset Image
ĠReset Caption
Ġcq n
SEQ NR
Ġcrypt key
Ġeb t
ĠFOR CC
ĠNEXT L
ĠNEXT BITS
ĠNEXT LEV
DEL ROUTE
abbb cccc
ĠMP N
Ġserv name
Ġsrcp refs
Ġkex dh
ACTI V
BP B
GS AP
Ġside band
gy start
ENV IRON
43 5057
QUEUE S
ANAL Y
ANAL OG
dh key
NP Object
noti fi
SPA PR
sin teger
Ġkeep old
Ġuns caled
ĠCA FAudio
Ġwin size
Ġseek able
phys mem
ddr info
Ġcor rect
EXPE CT
ĠJPEG COLORMODE
Ġxattr s
interp olate
fld l
Ġbar num
Ġgpio chip
ĠSub type
System Error
hold er
mss p
Ġround up
Ġtgt port
Ġed ts
Ġcdef ent
Ġpx Previous
Ġul count
Ġul SFI
Ġboot p
ESC APE
rfb Process
Ġcounter size
some what
Ġbzrtp DHPartMessage
Ġden om
Ġcompress Level
Ġrpmfi FX
Default Extension
SYM BOLS
ĠPOLL ERR
constra ined
ĠID LE
GN IZED
arith K
ĠATM TH
Match info
Ġvi olation
ĠInter cept
ĠDst Section
Ġ500 000
ĠTEST ARG
restart ing
1000 8
Pix map
Ġcseq metid
Ġrename d
mech Set
Ġvariable Length
Ġpers ist
Ġcmdline p
ĠTCG Label
Ġrem out
Ġhold d
MIC MD
Ġneg ated
NEED S
Ġrdcost y
Ġresize d
ĠPPP OX
mysql nd
Ġdeadline Bytes
fre eratio
hard ware
Ġzap owner
Session Key
ĠDevice Object
ĠDevice Name
ĠAddress Parts
Wr itten
Ġsma ll
Ġscope List
dra wn
retrans mit
ĠpE lem
ĠJS Object
ĠPrint Usage
Ġfast path
ĠconfirmPlainMessage Buffer
RAD L
RAD IO
Ġspeed s
Ġnest size
Ġprclyrno s
ĠSEND COMMAND
Ġoverflow ed
Ġdrv Ptr
ĠECONN REFUSED
Ġwre rrno
ĠReadDC MPixels
subtlv s
LSM ALLINT
hist ory
ĠSIOC Y
Ġsubtlv len
,= [
Ġfold ers
Net Entry
hop limit
san itize
vi k
ĠSv PV
Ġwsz FileName
Encrypted WPGImageFile
Ca pability
STD ERR
Screen s
Ġini tiate
ĠDIV TAB
CHO SEN
SCSI IO
EXPAND ER
subopt totallen
ISS OCK
ĠPOL Y
pmb arams
Ġfid Name
Ġmerge able
Ġisk ew
ĠnCol s
Startup Data
Ġhalf Protect
canon ical
Ġgraph file
Ġ"= &
Ġlin el
Separate StripsIntoBuffer
ENUMER ATION
Crea tion
Ġnod ename
most ly
ĠxmlParser CtxtPtr
Ġcla use
Ġwith item
POR TI
POR TH
POR TE
border s
ĠChunkHeader Format
bank s
Ġprogram mable
boxinfo lookup
SEGMENT REG
ĠDFFChunkHeader Format
strncpy z
git modules
ĠCLI PRDR
SECT BASE
FX SR
MIR ROR
Print Flags
crt ime
email s
decomp osed
ĠPO SIX
ĠPO INTS
ĠFAT AL
CRA M
INFIN ITE
ĠhIn Profile
ĠSh are
CHAIN ING
Colour Map
ĠLOW ER
Ġchart orune
issue d
Ġdimension ality
ĠSQ LSMALLINT
TRAIL ER
ĠlogicalBlock sRe
Ġplottitle s
Ġanti Bools
Ġindirect Entry
ĠPre pareRxDone
Ġinflate End
Ġlittle Endian
strtod bl
ImageFile Does
IDe vice
Proc Mask
CAL LED
Gen ius
XE ME
Ġnpos args
Ġnpos defaults
ĠlIs Input
ĠlIs DeviceLink
Ġmach len
Ġmackey i
Ġmackey r
ĠPRIV SEP
Ġzrtpkey i
Ġzrtpkey r
Switch ed
definition s
ĠUnpackWPG Raster
ĠITEM SIZE
Crypt Mode
Hard ware
ĠAl phaQuantum
ĠFIX ED
ĠArray Size
ĠViewOD s
rpl m
tac cess
Ġnol rentry
Ġtti sinteger
ĠRP CAP
LEU W
ĠUFF D
Ġmdio bus
ĠxmlRelax NGP
quan tifier
Ġwill close
ĠPageSwap Backed
Ġcombine Separate
ĠTag MAP
ĠGEN L
indic ated
Compatible Colorspace
Sin ce
ama i
Ġbts ock
Ġuw sgi
Ġdal vik
ĠLPC STR
FOpenFile Read
Win XP
huff man
ntrl MsgBitMask
INCONSISTENT VALUE
ĠRIO Desc
getmsg int
Ġexper im
occur red
Ġlease duration
ĠInf Gtk
Ġsingleton Pos
Subo bject
CONFIR MED
CACH ED
Ġcrl f
Ġpur pose
attemp ting
RAF Data
FAM ILY
ĠOF PG
Country Code
Ġndig s
XSMP Client
thost name
Ġwusb hc
appe ar
Ġmodification Time
ĠWEXIT STATUS
ĠProbeRealDriveSize Request
Random SessionKey
ĠRxC ntrlMsgBitMask
ĠTU BE
ĠLI MIT
InCol lection
Ġaccep table
UNRECO GNIZED
BUL K
Dig i
Ed die
Ko hler
Sor ry
WBIN VD
bod ies
pata tor
Ġisg raph
Ġson ique
Ġsix teen
Ġspar ablePartitionMap
ĠbTrue CryptMode
ĠbDescriptor Type
alts vc
Ġnink s
ĠnCur ves
Ġindirection s
Ġldb m
Ġefb in
Ġvand q
ĠtCT M
Ġtmv def
lenExtent s
ĠSUR ROGATE
REPRESENT ATION
Ġkvas er
ĠPMC RAID
ĠROT ATECW
Ġwifi dev
ĠIssRGB CompatibleColorspace
ĠDATASO URCE
ĠLargest Position
expedi ted
ĠlengthExtended Attr
InCurrent Chunk
Infin ity
Ġnumlut ents
ĠReadWPG Image
ĠUBI K
Ġshml ba
ANTIAL IAS
ĠmaxFilename Len
Ġassocp arams
Ġassem bler
MAXPUT BACK
SUBLE XEME
ĠnextDepth Offset
ToLittle Endian
Ġverbos ity
ĠDetect Filesystem
ĠszSep Line
ĠTIFFCurrent Tile
ĠfirstSample InCurrentChunk
ĠdevicePath Len
ĠSQLFree Stmt
ĠaddModule Argument
ĠPRINC IPAL
warran ty
ĠWavpackNative ToLittleEndian
ĠuiLoop Index
NotContain AnyImageData
Ġicmsghdr p
ĠmtCOVER AGE
CreateCoreBack trace
VdbeJump Here
SaveFull Core
ORIGDST ADDR
Standalone Hook
ĠCAFAudio Format
ĠpxPrevious Block
ĠulSFI d
EncryptedWPGImageFile NotSupported
Ġprogrammable Delay
ĠlogicalBlocksRe corded
ĠPrepareRxDone Abort
ImageFileDoes NotContainAnyImageData
ĠInfGtk Certificate
( )
, &
, |
0 50
2 20
2 10
2 15
2 25
3 32
4 000
4 36
5 50
5 22
> ?"
> ***<
@ "
A ugAssign
B us
B AU
B ottom
C ase
C lock
C ABAC
D AC
E st
E FORMAT
E FFICIENT
F low
F EC
F lush
F raction
G OT
G FLAGS
H H
H z
H ST
H AD
H AU
H IST
H MM
J GE
K ADM
K VNO
L sb
L FS
L LC
M id
M SI
M MAP
M irror
N xt
N TRY
N ITU
O SV
O SI
O DATA
O OT
O ther
O mni
P TYPE
P AM
P READ
P wd
P WRITE
P VID
Q OS
R DI
R DATA
R RP
R ational
S up
S uffix
S ALT
S mart
T EX
T OL
T UP
T FLAGS
T xAncillary
V Q
V SI
V ENT
V tab
V oice
W ait
W ill
W atch
X ADD
X smp
X authority
Z ONE
Z ISOFS
a ware
b w
b ag
b ol
b slice
b wd
c ern
c arbon
c wnd
f sgid
f ram
f allback
g ob
h mp
h up
h vm
h ive
i j
i lseq
j s
j unk
k ECDHE
l chid
m ur
m cc
n print
n Assign
o gram
p slice
p list
p py
q c
r hdr
s uff
s ol
s idx
s ense
s paring
s chro
t str
t no
t file
t bs
t onum
u rn
v im
v nr
w ted
w here
x ed
x mpp
{ %
Ġ only
Ġ EndOf
Ġi ri
Ġi Cont
Ġs attr
Ġs core
Ġs ops
Ġs oftware
Ġs paring
re validate
re striction
re ctly
Ġc as
Ġc up
Ġc ERROR
Ġc path
Ġc index
Ġc orrupt
Ġc princ
Ġc stat
er dp
en coun
ta lic
in sta
in file
in consistent
Ġp cpu
Ġp Index
Ġp Stack
Ġp Mix
se tu
se ment
tr opy
tr oute
ma tic
ma ture
ma ker
Ġre ff
Ġre ally
Ġb str
Ġb di
Ġb width
Ġb cell
ge tattr
Ġf log
Ġf ops
Ġf tel
Ġf getline
Ġf chmod
al tern
al so
te le
te gration
Ġn R
Ġn Bytes
Ġn Db
Ġn Rect
Ġu nder
Ġu gfn
ti ating
od ers
Ġl s
Ġl sr
Ġe val
Ġe mit
Ġe mr
Ġo vp
nd z
Ġd pa
Ġd count
Ġd array
Ġd lc
Ġd refs
Ġd agid
Ġv state
[...]
